{
  "version": "1.0",
  "truncation": null,
  "padding": null,
  "added_tokens": [
    {
      "id": 0,
      "content": "[PAD]",
      "single_word": false,
      "lstrip": false,
      "rstrip": false,
      "normalized": false,
      "special": true
    },
    {
      "id": 1,
      "content": "[UNK]",
      "single_word": false,
      "lstrip": false,
      "rstrip": false,
      "normalized": false,
      "special": true
    },
    {
      "id": 2,
      "content": "[CLS]",
      "single_word": false,
      "lstrip": false,
      "rstrip": false,
      "normalized": false,
      "special": true
    },
    {
      "id": 3,
      "content": "[SEP]",
      "single_word": false,
      "lstrip": false,
      "rstrip": false,
      "normalized": false,
      "special": true
    },
    {
      "id": 4,
      "content": "[MASK]",
      "single_word": false,
      "lstrip": false,
      "rstrip": false,
      "normalized": false,
      "special": true
    }
  ],
  "normalizer": {
    "type": "BertNormalizer",
    "clean_text": true,
    "handle_chinese_chars": true,
    "strip_accents": false,
    "lowercase": false
  },
  "pre_tokenizer": {
    "type": "BertPreTokenizer"
  },
  "post_processor": {
    "type": "TemplateProcessing",
    "single": [
      {
        "SpecialToken": {
          "id": "[CLS]",
          "type_id": 0
        }
      },
      {
        "Sequence": {
          "id": "A",
          "type_id": 0
        }
      },
      {
        "SpecialToken": {
          "id": "[SEP]",
          "type_id": 0
        }
      }
    ],
    "pair": [
      {
        "SpecialToken": {
          "id": "[CLS]",
          "type_id": 0
        }
      },
      {
        "Sequence": {
          "id": "A",
          "type_id": 0
        }
      },
      {
        "SpecialToken": {
          "id": "[SEP]",
          "type_id": 0
        }
      },
      {
        "Sequence": {
          "id": "B",
          "type_id": 1
        }
      },
      {
        "SpecialToken": {
          "id": "[SEP]",
          "type_id": 1
        }
      }
    ],
    "special_tokens": {
      "[CLS]": {
        "id": "[CLS]",
        "ids": [
          2
        ],
        "tokens": [
          "[CLS]"
        ]
      },
      "[SEP]": {
        "id": "[SEP]",
        "ids": [
          3
        ],
        "tokens": [
          "[SEP]"
        ]
      }
    }
  },
  "decoder": {
    "type": "WordPiece",
    "prefix": "##",
    "cleanup": true
  },
  "model": {
    "type": "WordPiece",
    "unk_token": "[UNK]",
    "continuing_subword_prefix": "##",
    "max_input_chars_per_word": 100,
    "vocab": {
      "[PAD]": 0,
      "[UNK]": 1,
      "[CLS]": 2,
      "[SEP]": 3,
      "[MASK]": 4,
      "[NL]": 5,
      "[HS]": 6,
      "[SOS]": 7,
      "[EOS]": 8,
      "[ZWNJ]": 9,
      "[U1]": 10,
      "[U2]": 11,
      "[U3]": 12,
      "[U4]": 13,
      "[U5]": 14,
      "[U6]": 15,
      "[U7]": 16,
      "[U8]": 17,
      "[U9]": 18,
      "[U10]": 19,
      "[U11]": 20,
      "[U12]": 21,
      "[U13]": 22,
      "[U14]": 23,
      "[U15]": 24,
      "[U16]": 25,
      "[U17]": 26,
      "[U18]": 27,
      "[U19]": 28,
      "[U20]": 29,
      "[U21]": 30,
      "[U22]": 31,
      "[U23]": 32,
      "[U24]": 33,
      "[U25]": 34,
      "[U26]": 35,
      "[U27]": 36,
      "[U28]": 37,
      "[U29]": 38,
      "[U30]": 39,
      "[U31]": 40,
      "[U32]": 41,
      "[U33]": 42,
      "[U34]": 43,
      "[U35]": 44,
      "[U36]": 45,
      "[U37]": 46,
      "[U38]": 47,
      "[U39]": 48,
      "[U40]": 49,
      "[U41]": 50,
      "[U42]": 51,
      "[U43]": 52,
      "[U44]": 53,
      "[U45]": 54,
      "[U46]": 55,
      "[U47]": 56,
      "[U48]": 57,
      "[U49]": 58,
      "[U50]": 59,
      "[U51]": 60,
      "[U52]": 61,
      "[U53]": 62,
      "[U54]": 63,
      "[U55]": 64,
      "[U56]": 65,
      "[U57]": 66,
      "[U58]": 67,
      "[U59]": 68,
      "[U60]": 69,
      "[U61]": 70,
      "[U62]": 71,
      "[U63]": 72,
      "[U64]": 73,
      "[U65]": 74,
      "[U66]": 75,
      "[U67]": 76,
      "[U68]": 77,
      "[U69]": 78,
      "[U70]": 79,
      "[U71]": 80,
      "[U72]": 81,
      "[U73]": 82,
      "[U74]": 83,
      "[U75]": 84,
      "[U76]": 85,
      "[U77]": 86,
      "[U78]": 87,
      "[U79]": 88,
      "[U80]": 89,
      "[U81]": 90,
      "[U82]": 91,
      "[U83]": 92,
      "[U84]": 93,
      "[U85]": 94,
      "[U86]": 95,
      "[U87]": 96,
      "[U88]": 97,
      "[U89]": 98,
      "[U90]": 99,
      "[U91]": 100,
      "[U92]": 101,
      "[U93]": 102,
      "[U94]": 103,
      "[U95]": 104,
      "[U96]": 105,
      "[U97]": 106,
      "[U98]": 107,
      "[U99]": 108,
      "[U100]": 109,
      "!": 110,
      "\"": 111,
      "%": 112,
      "&": 113,
      "'": 114,
      "(": 115,
      ")": 116,
      "*": 117,
      "+": 118,
      ",": 119,
      "-": 120,
      ".": 121,
      "/": 122,
      "0": 123,
      "1": 124,
      "2": 125,
      "3": 126,
      "4": 127,
      "5": 128,
      "6": 129,
      "7": 130,
      "8": 131,
      "9": 132,
      ":": 133,
      ";": 134,
      "<": 135,
      "=": 136,
      ">": 137,
      "?": 138,
      "@": 139,
      "A": 140,
      "B": 141,
      "C": 142,
      "D": 143,
      "E": 144,
      "F": 145,
      "G": 146,
      "H": 147,
      "I": 148,
      "J": 149,
      "K": 150,
      "L": 151,
      "M": 152,
      "N": 153,
      "O": 154,
      "P": 155,
      "Q": 156,
      "R": 157,
      "S": 158,
      "T": 159,
      "U": 160,
      "V": 161,
      "W": 162,
      "X": 163,
      "Y": 164,
      "Z": 165,
      "[": 166,
      "\\": 167,
      "]": 168,
      "^": 169,
      "_": 170,
      "`": 171,
      "a": 172,
      "b": 173,
      "c": 174,
      "d": 175,
      "e": 176,
      "f": 177,
      "g": 178,
      "h": 179,
      "i": 180,
      "j": 181,
      "k": 182,
      "l": 183,
      "m": 184,
      "n": 185,
      "o": 186,
      "p": 187,
      "q": 188,
      "r": 189,
      "s": 190,
      "t": 191,
      "u": 192,
      "v": 193,
      "w": 194,
      "x": 195,
      "y": 196,
      "z": 197,
      "{": 198,
      "|": 199,
      "}": 200,
      "~": 201,
      "¡": 202,
      "¢": 203,
      "¤": 204,
      "¦": 205,
      "§": 206,
      "¨": 207,
      "ª": 208,
      "«": 209,
      "¬": 210,
      "¯": 211,
      "°": 212,
      "±": 213,
      "²": 214,
      "³": 215,
      "´": 216,
      "µ": 217,
      "¶": 218,
      "·": 219,
      "¸": 220,
      "¹": 221,
      "º": 222,
      "»": 223,
      "¼": 224,
      "½": 225,
      "¾": 226,
      "¿": 227,
      "Æ": 228,
      "Ð": 229,
      "×": 230,
      "Ø": 231,
      "Þ": 232,
      "ß": 233,
      "æ": 234,
      "ð": 235,
      "÷": 236,
      "ø": 237,
      "þ": 238,
      "Đ": 239,
      "đ": 240,
      "ħ": 241,
      "ı": 242,
      "Ł": 243,
      "ł": 244,
      "ŋ": 245,
      "Œ": 246,
      "œ": 247,
      "Ɓ": 248,
      "Ƈ": 249,
      "Ə": 250,
      "Ɛ": 251,
      "ƒ": 252,
      "ƙ": 253,
      "Ɯ": 254,
      "Ɲ": 255,
      "Ɵ": 256,
      "ƥ": 257,
      "Ƭ": 258,
      "Ʋ": 259,
      "Ƴ": 260,
      "Ƶ": 261,
      "ǁ": 262,
      "ǃ": 263,
      "ǝ": 264,
      "ȝ": 265,
      "Ȥ": 266,
      "ɀ": 267,
      "Ƀ": 268,
      "ɐ": 269,
      "ɑ": 270,
      "ɒ": 271,
      "ɓ": 272,
      "ɔ": 273,
      "ɕ": 274,
      "ɖ": 275,
      "ɗ": 276,
      "ɘ": 277,
      "ə": 278,
      "ɛ": 279,
      "ɜ": 280,
      "ɠ": 281,
      "ɡ": 282,
      "ɢ": 283,
      "ɣ": 284,
      "ɤ": 285,
      "ɥ": 286,
      "ɦ": 287,
      "ɨ": 288,
      "ɪ": 289,
      "ɫ": 290,
      "ɬ": 291,
      "ɯ": 292,
      "ɰ": 293,
      "ɲ": 294,
      "ɴ": 295,
      "ɵ": 296,
      "ɸ": 297,
      "ɹ": 298,
      "ɾ": 299,
      "ʁ": 300,
      "ʂ": 301,
      "ʃ": 302,
      "ʄ": 303,
      "ʈ": 304,
      "ʉ": 305,
      "ʊ": 306,
      "ʋ": 307,
      "ʌ": 308,
      "ʑ": 309,
      "ʒ": 310,
      "ʔ": 311,
      "ʕ": 312,
      "ʛ": 313,
      "ʝ": 314,
      "ʰ": 315,
      "ʲ": 316,
      "ʳ": 317,
      "ʷ": 318,
      "ʹ": 319,
      "ʺ": 320,
      "ʻ": 321,
      "ʾ": 322,
      "ʿ": 323,
      "ˀ": 324,
      "ˆ": 325,
      "ˇ": 326,
      "ˈ": 327,
      "ˌ": 328,
      "ː": 329,
      "˓": 330,
      "˘": 331,
      "˚": 332,
      "˛": 333,
      "˜": 334,
      "˝": 335,
      "ˡ": 336,
      "ˤ": 337,
      "ˮ": 338,
      "Α": 339,
      "Β": 340,
      "Γ": 341,
      "Δ": 342,
      "Ε": 343,
      "Η": 344,
      "Θ": 345,
      "Ι": 346,
      "Κ": 347,
      "Λ": 348,
      "Μ": 349,
      "Ν": 350,
      "Ξ": 351,
      "Ο": 352,
      "Π": 353,
      "Ρ": 354,
      "Σ": 355,
      "Τ": 356,
      "Υ": 357,
      "Φ": 358,
      "Χ": 359,
      "Ψ": 360,
      "Ω": 361,
      "α": 362,
      "β": 363,
      "γ": 364,
      "δ": 365,
      "ε": 366,
      "ζ": 367,
      "η": 368,
      "θ": 369,
      "ι": 370,
      "κ": 371,
      "λ": 372,
      "μ": 373,
      "ν": 374,
      "ξ": 375,
      "ο": 376,
      "π": 377,
      "ρ": 378,
      "ς": 379,
      "σ": 380,
      "τ": 381,
      "υ": 382,
      "φ": 383,
      "χ": 384,
      "ψ": 385,
      "ω": 386,
      "ϐ": 387,
      "ϑ": 388,
      "ϒ": 389,
      "ϕ": 390,
      "ϟ": 391,
      "Ϭ": 392,
      "ϵ": 393,
      "Ϸ": 394,
      "ϸ": 395,
      "Є": 396,
      "І": 397,
      "Ј": 398,
      "Љ": 399,
      "А": 400,
      "Б": 401,
      "В": 402,
      "Г": 403,
      "Д": 404,
      "Е": 405,
      "Ж": 406,
      "З": 407,
      "И": 408,
      "К": 409,
      "Л": 410,
      "М": 411,
      "Н": 412,
      "О": 413,
      "П": 414,
      "Р": 415,
      "С": 416,
      "Т": 417,
      "У": 418,
      "Ф": 419,
      "Х": 420,
      "Ц": 421,
      "Ч": 422,
      "Ш": 423,
      "Щ": 424,
      "Ы": 425,
      "Ь": 426,
      "Э": 427,
      "Ю": 428,
      "Я": 429,
      "а": 430,
      "б": 431,
      "в": 432,
      "г": 433,
      "д": 434,
      "е": 435,
      "ж": 436,
      "з": 437,
      "и": 438,
      "к": 439,
      "л": 440,
      "м": 441,
      "н": 442,
      "о": 443,
      "п": 444,
      "р": 445,
      "с": 446,
      "т": 447,
      "у": 448,
      "ф": 449,
      "х": 450,
      "ц": 451,
      "ч": 452,
      "ш": 453,
      "щ": 454,
      "ъ": 455,
      "ы": 456,
      "ь": 457,
      "э": 458,
      "ю": 459,
      "я": 460,
      "є": 461,
      "і": 462,
      "ј": 463,
      "љ": 464,
      "ћ": 465,
      "ѣ": 466,
      "Ѳ": 467,
      "Ғ": 468,
      "ғ": 469,
      "Қ": 470,
      "қ": 471,
      "Ң": 472,
      "ң": 473,
      "Ҥ": 474,
      "Ү": 475,
      "ү": 476,
      "ұ": 477,
      "Ҳ": 478,
      "ҳ": 479,
      "ҷ": 480,
      "һ": 481,
      "Ӏ": 482,
      "Ә": 483,
      "ә": 484,
      "Ө": 485,
      "ө": 486,
      "Ա": 487,
      "Բ": 488,
      "Գ": 489,
      "Դ": 490,
      "Ե": 491,
      "Է": 492,
      "Թ": 493,
      "Ի": 494,
      "Լ": 495,
      "Խ": 496,
      "Ծ": 497,
      "Կ": 498,
      "Հ": 499,
      "Ձ": 500,
      "Ճ": 501,
      "Մ": 502,
      "Յ": 503,
      "Ն": 504,
      "Շ": 505,
      "Ո": 506,
      "Չ": 507,
      "Պ": 508,
      "Ջ": 509,
      "Ռ": 510,
      "Ս": 511,
      "Վ": 512,
      "Տ": 513,
      "Փ": 514,
      "Ք": 515,
      "Օ": 516,
      "Ֆ": 517,
      "՞": 518,
      "ա": 519,
      "բ": 520,
      "գ": 521,
      "դ": 522,
      "ե": 523,
      "զ": 524,
      "է": 525,
      "ը": 526,
      "թ": 527,
      "ժ": 528,
      "ի": 529,
      "լ": 530,
      "խ": 531,
      "ծ": 532,
      "կ": 533,
      "հ": 534,
      "ձ": 535,
      "ղ": 536,
      "ճ": 537,
      "մ": 538,
      "յ": 539,
      "ն": 540,
      "շ": 541,
      "ո": 542,
      "չ": 543,
      "պ": 544,
      "ջ": 545,
      "ռ": 546,
      "ս": 547,
      "վ": 548,
      "տ": 549,
      "ր": 550,
      "ց": 551,
      "ւ": 552,
      "փ": 553,
      "ք": 554,
      "օ": 555,
      "ֆ": 556,
      "և": 557,
      "־": 558,
      "׃": 559,
      "א": 560,
      "ב": 561,
      "ג": 562,
      "ד": 563,
      "ה": 564,
      "ו": 565,
      "ז": 566,
      "ח": 567,
      "ט": 568,
      "י": 569,
      "ך": 570,
      "כ": 571,
      "ל": 572,
      "ם": 573,
      "מ": 574,
      "ן": 575,
      "נ": 576,
      "ס": 577,
      "ע": 578,
      "ף": 579,
      "פ": 580,
      "ץ": 581,
      "צ": 582,
      "ק": 583,
      "ר": 584,
      "ש": 585,
      "ת": 586,
      "װ": 587,
      "ײ": 588,
      "׳": 589,
      "،": 590,
      "؍": 591,
      "؛": 592,
      "؟": 593,
      "ء": 594,
      "آ": 595,
      "ا": 596,
      "ب": 597,
      "ة": 598,
      "ت": 599,
      "ث": 600,
      "ج": 601,
      "ح": 602,
      "خ": 603,
      "د": 604,
      "ذ": 605,
      "ر": 606,
      "ز": 607,
      "س": 608,
      "ش": 609,
      "ص": 610,
      "ض": 611,
      "ط": 612,
      "ظ": 613,
      "ع": 614,
      "غ": 615,
      "ؽ": 616,
      "ف": 617,
      "ق": 618,
      "ل": 619,
      "م": 620,
      "ن": 621,
      "ه": 622,
      "و": 623,
      "ى": 624,
      "ي": 625,
      "٠": 626,
      "١": 627,
      "٢": 628,
      "٣": 629,
      "٤": 630,
      "٥": 631,
      "٦": 632,
      "٧": 633,
      "٨": 634,
      "٩": 635,
      "٪": 636,
      "٫": 637,
      "٬": 638,
      "٭": 639,
      "ٱ": 640,
      "ٲ": 641,
      "ٴ": 642,
      "ٵ": 643,
      "ٶ": 644,
      "ٸ": 645,
      "ٹ": 646,
      "ټ": 647,
      "پ": 648,
      "ٿ": 649,
      "ځ": 650,
      "څ": 651,
      "چ": 652,
      "ڈ": 653,
      "ډ": 654,
      "ڌ": 655,
      "ڑ": 656,
      "ړ": 657,
      "ڕ": 658,
      "ږ": 659,
      "ژ": 660,
      "ښ": 661,
      "ڠ": 662,
      "ڤ": 663,
      "ڨ": 664,
      "ک": 665,
      "ڪ": 666,
      "ګ": 667,
      "ڬ": 668,
      "ڭ": 669,
      "گ": 670,
      "ڵ": 671,
      "ں": 672,
      "ڼ": 673,
      "ھ": 674,
      "ہ": 675,
      "ۃ": 676,
      "ۆ": 677,
      "ۇ": 678,
      "ۈ": 679,
      "ۉ": 680,
      "ۊ": 681,
      "ی": 682,
      "ۍ": 683,
      "ێ": 684,
      "ۏ": 685,
      "ې": 686,
      "ے": 687,
      "۔": 688,
      "ە": 689,
      "۞": 690,
      "۰": 691,
      "۱": 692,
      "۲": 693,
      "۳": 694,
      "۴": 695,
      "۵": 696,
      "۶": 697,
      "۷": 698,
      "۸": 699,
      "۹": 700,
      "ܐ": 701,
      "ܒ": 702,
      "ܓ": 703,
      "ܕ": 704,
      "ܗ": 705,
      "ܘ": 706,
      "ܙ": 707,
      "ܚ": 708,
      "ܛ": 709,
      "ܝ": 710,
      "ܟ": 711,
      "ܠ": 712,
      "ܡ": 713,
      "ܢ": 714,
      "ܣ": 715,
      "ܤ": 716,
      "ܥ": 717,
      "ܦ": 718,
      "ܨ": 719,
      "ܩ": 720,
      "ܪ": 721,
      "ܫ": 722,
      "ܬ": 723,
      "ބ": 724,
      "އ": 725,
      "މ": 726,
      "ދ": 727,
      "ލ": 728,
      "ގ": 729,
      "ޔ": 730,
      "ः": 731,
      "अ": 732,
      "आ": 733,
      "इ": 734,
      "ई": 735,
      "उ": 736,
      "ओ": 737,
      "औ": 738,
      "क": 739,
      "ख": 740,
      "ग": 741,
      "घ": 742,
      "च": 743,
      "छ": 744,
      "ज": 745,
      "ञ": 746,
      "ट": 747,
      "ठ": 748,
      "ड": 749,
      "ढ": 750,
      "ण": 751,
      "त": 752,
      "थ": 753,
      "द": 754,
      "ध": 755,
      "न": 756,
      "प": 757,
      "फ": 758,
      "ब": 759,
      "भ": 760,
      "म": 761,
      "य": 762,
      "र": 763,
      "ल": 764,
      "ळ": 765,
      "व": 766,
      "श": 767,
      "ष": 768,
      "स": 769,
      "ह": 770,
      "ा": 771,
      "ि": 772,
      "ी": 773,
      "ो": 774,
      "ौ": 775,
      "२": 776,
      "३": 777,
      "ং": 778,
      "ক": 779,
      "খ": 780,
      "ঙ": 781,
      "চ": 782,
      "জ": 783,
      "ট": 784,
      "ড": 785,
      "ত": 786,
      "দ": 787,
      "ন": 788,
      "প": 789,
      "ফ": 790,
      "ব": 791,
      "ম": 792,
      "য": 793,
      "র": 794,
      "ল": 795,
      "শ": 796,
      "স": 797,
      "হ": 798,
      "া": 799,
      "ি": 800,
      "ী": 801,
      "ে": 802,
      "ਅ": 803,
      "ਆ": 804,
      "ਇ": 805,
      "ਕ": 806,
      "ਖ": 807,
      "ਗ": 808,
      "ਘ": 809,
      "ਚ": 810,
      "ਜ": 811,
      "ਣ": 812,
      "ਤ": 813,
      "ਦ": 814,
      "ਨ": 815,
      "ਪ": 816,
      "ਬ": 817,
      "ਮ": 818,
      "ਰ": 819,
      "ਲ": 820,
      "ਵ": 821,
      "ਸ": 822,
      "ਹ": 823,
      "ਾ": 824,
      "ਿ": 825,
      "ੀ": 826,
      "ક": 827,
      "ગ": 828,
      "દ": 829,
      "ધ": 830,
      "ન": 831,
      "મ": 832,
      "ય": 833,
      "ર": 834,
      "હ": 835,
      "ા": 836,
      "ી": 837,
      "ଆ": 838,
      "ଓ": 839,
      "ଦ": 840,
      "ୀ": 841,
      "க": 842,
      "ச": 843,
      "ஜ": 844,
      "ட": 845,
      "ண": 846,
      "த": 847,
      "ந": 848,
      "ன": 849,
      "ப": 850,
      "ம": 851,
      "ய": 852,
      "ர": 853,
      "ல": 854,
      "ள": 855,
      "வ": 856,
      "ா": 857,
      "ி": 858,
      "ு": 859,
      "ெ": 860,
      "ே": 861,
      "ం": 862,
      "క": 863,
      "గ": 864,
      "జ": 865,
      "డ": 866,
      "ద": 867,
      "న": 868,
      "ప": 869,
      "బ": 870,
      "మ": 871,
      "ర": 872,
      "ల": 873,
      "వ": 874,
      "హ": 875,
      "ు": 876,
      "ಂ": 877,
      "ಅ": 878,
      "ಡ": 879,
      "ದ": 880,
      "ನ": 881,
      "ಪ": 882,
      "ಮ": 883,
      "ಯ": 884,
      "ರ": 885,
      "ವ": 886,
      "ಸ": 887,
      "ಾ": 888,
      "ು": 889,
      "ೂ": 890,
      "ೕ": 891,
      "ೖ": 892,
      "ക": 893,
      "ത": 894,
      "ന": 895,
      "പ": 896,
      "മ": 897,
      "ര": 898,
      "ല": 899,
      "വ": 900,
      "ാ": 901,
      "ി": 902,
      "ජ": 903,
      "ර": 904,
      "හ": 905,
      "ා": 906,
      "ก": 907,
      "ค": 908,
      "ง": 909,
      "จ": 910,
      "ช": 911,
      "ซ": 912,
      "ณ": 913,
      "ด": 914,
      "ต": 915,
      "ถ": 916,
      "ท": 917,
      "ธ": 918,
      "น": 919,
      "บ": 920,
      "ป": 921,
      "ผ": 922,
      "พ": 923,
      "ภ": 924,
      "ม": 925,
      "ย": 926,
      "ร": 927,
      "ล": 928,
      "ว": 929,
      "ศ": 930,
      "ษ": 931,
      "ส": 932,
      "ห": 933,
      "อ": 934,
      "ะ": 935,
      "า": 936,
      "ำ": 937,
      "เ": 938,
      "โ": 939,
      "ไ": 940,
      "ກ": 941,
      "ໄ": 942,
      "་": 943,
      "།": 944,
      "ག": 945,
      "ཐ": 946,
      "ན": 947,
      "པ": 948,
      "བ": 949,
      "ར": 950,
      "ས": 951,
      "က": 952,
      "င": 953,
      "ည": 954,
      "တ": 955,
      "န": 956,
      "ပ": 957,
      "လ": 958,
      "သ": 959,
      "း": 960,
      "ြ": 961,
      "ა": 962,
      "ბ": 963,
      "გ": 964,
      "დ": 965,
      "ე": 966,
      "ვ": 967,
      "ზ": 968,
      "თ": 969,
      "ი": 970,
      "კ": 971,
      "ლ": 972,
      "მ": 973,
      "ნ": 974,
      "ო": 975,
      "პ": 976,
      "რ": 977,
      "ს": 978,
      "ტ": 979,
      "უ": 980,
      "ფ": 981,
      "ქ": 982,
      "ღ": 983,
      "ყ": 984,
      "შ": 985,
      "ჩ": 986,
      "ც": 987,
      "ძ": 988,
      "წ": 989,
      "ხ": 990,
      "ჯ": 991,
      "መ": 992,
      "ባ": 993,
      "አ": 994,
      "ዓ": 995,
      "ይ": 996,
      "ግ": 997,
      "ម": 998,
      "រ": 999,
      "ស": 1000,
      "ា": 1001,
      "ᴄ": 1002,
      "ᴗ": 1003,
      "ᴠ": 1004,
      "ᴧ": 1005,
      "ᵉ": 1006,
      "ᵛ": 1007,
      "ᵢ": 1008,
      "ᵻ": 1009,
      "ᵽ": 1010,
      "‐": 1011,
      "‑": 1012,
      "—": 1013,
      "―": 1014,
      "‖": 1015,
      "†": 1016,
      "‡": 1017,
      "•": 1018,
      "…": 1019,
      "′": 1020,
      "″": 1021,
      "‹": 1022,
      "›": 1023,
      "※": 1024,
      "⁃": 1025,
      "⁄": 1026,
      "⁝": 1027,
      "⁰": 1028,
      "ⁱ": 1029,
      "⁴": 1030,
      "⁵": 1031,
      "⁶": 1032,
      "⁸": 1033,
      "⁹": 1034,
      "⁺": 1035,
      "⁻": 1036,
      "₁": 1037,
      "₂": 1038,
      "₃": 1039,
      "ₙ": 1040,
      "₿": 1041,
      "ℂ": 1042,
      "℃": 1043,
      "℅": 1044,
      "℉": 1045,
      "ℓ": 1046,
      "ℕ": 1047,
      "№": 1048,
      "ℤ": 1049,
      "℧": 1050,
      "℮": 1051,
      "ℷ": 1052,
      "⅓": 1053,
      "⅔": 1054,
      "⅛": 1055,
      "←": 1056,
      "↑": 1057,
      "→": 1058,
      "↓": 1059,
      "↝": 1060,
      "↫": 1061,
      "↵": 1062,
      "⇐": 1063,
      "⇒": 1064,
      "⇔": 1065,
      "⇚": 1066,
      "⇛": 1067,
      "⇦": 1068,
      "⇽": 1069,
      "∂": 1070,
      "∅": 1071,
      "∆": 1072,
      "∇": 1073,
      "∈": 1074,
      "∑": 1075,
      "−": 1076,
      "∗": 1077,
      "∘": 1078,
      "∙": 1079,
      "√": 1080,
      "∝": 1081,
      "∞": 1082,
      "∟": 1083,
      "∠": 1084,
      "∥": 1085,
      "∧": 1086,
      "∨": 1087,
      "∩": 1088,
      "∪": 1089,
      "∴": 1090,
      "∼": 1091,
      "≈": 1092,
      "≡": 1093,
      "≤": 1094,
      "≥": 1095,
      "≪": 1096,
      "≫": 1097,
      "⊂": 1098,
      "⊃": 1099,
      "⊆": 1100,
      "⊇": 1101,
      "⊕": 1102,
      "⊗": 1103,
      "⋅": 1104,
      "⌊": 1105,
      "⌋": 1106,
      "⌒": 1107,
      "⌘": 1108,
      "⍺": 1109,
      "##ا": 1110,
      "##ز": 1111,
      "##و": 1112,
      "##م": 1113,
      "##ی": 1114,
      "##س": 1115,
      "##ت": 1116,
      "##ع": 1117,
      "##ر": 1118,
      "##ج": 1119,
      "##ل": 1120,
      "##ش": 1121,
      "##گ": 1122,
      "##ه": 1123,
      "##د": 1124,
      "##ن": 1125,
      "##ف": 1126,
      "##ک": 1127,
      "##ى": 1128,
      "##ح": 1129,
      "##R": 1130,
      "##I": 1131,
      "##S": 1132,
      "##A": 1133,
      "##O": 1134,
      "##ب": 1135,
      "##ط": 1136,
      "##G": 1137,
      "##s": 1138,
      "##r": 1139,
      "##o": 1140,
      "##m": 1141,
      "##u": 1142,
      "##n": 1143,
      "##t": 1144,
      "##e": 1145,
      "##p": 1146,
      "##l": 1147,
      "##a": 1148,
      "##z": 1149,
      "##3": 1150,
      "##7": 1151,
      "##x": 1152,
      "##ص": 1153,
      "##ء": 1154,
      "##۲": 1155,
      "##۱": 1156,
      "##۵": 1157,
      "##h": 1158,
      "##d": 1159,
      "##8": 1160,
      "##9": 1161,
      "##b": 1162,
      "##c": 1163,
      "##v": 1164,
      "##4": 1165,
      "##پ": 1166,
      "##ق": 1167,
      "##i": 1168,
      "##ذ": 1169,
      "##ث": 1170,
      "##w": 1171,
      "##چ": 1172,
      "##ي": 1173,
      "##k": 1174,
      "##F": 1175,
      "##1": 1176,
      "##0": 1177,
      "##y": 1178,
      "##ض": 1179,
      "##خ": 1180,
      "##۰": 1181,
      "##5": 1182,
      "##U": 1183,
      "##N": 1184,
      "##K": 1185,
      "##غ": 1186,
      "##P": 1187,
      "##C": 1188,
      "##Q": 1189,
      "##E": 1190,
      "##T": 1191,
      "##6": 1192,
      "##g": 1193,
      "##L": 1194,
      "##۴": 1195,
      "##۳": 1196,
      "##۸": 1197,
      "##۶": 1198,
      "##۷": 1199,
      "##۹": 1200,
      "##ظ": 1201,
      "##ژ": 1202,
      "##j": 1203,
      "##٢": 1204,
      "##B": 1205,
      "##H": 1206,
      "##2": 1207,
      "##f": 1208,
      "##V": 1209,
      "##ə": 1210,
      "##D": 1211,
      "##W": 1212,
      "##٠": 1213,
      "##M": 1214,
      "##е": 1215,
      "##н": 1216,
      "##у": 1217,
      "##ı": 1218,
      "##×": 1219,
      "##ٲ": 1220,
      "##´": 1221,
      "##Z": 1222,
      "##X": 1223,
      "##ۆ": 1224,
      "##ە": 1225,
      "##ڕ": 1226,
      "##q": 1227,
      "##ٴ": 1228,
      "##˓": 1229,
      "##а": 1230,
      "##б": 1231,
      "##р": 1232,
      "##л": 1233,
      "##ы": 1234,
      "##ε": 1235,
      "##ρ": 1236,
      "##ι": 1237,
      "##κ": 1238,
      "##λ": 1239,
      "##υ": 1240,
      "##τ": 1241,
      "##ο": 1242,
      "##ς": 1243,
      "##ة": 1244,
      "##ס": 1245,
      "##י": 1246,
      "##ד": 1247,
      "##ו": 1248,
      "##ת": 1249,
      "##и": 1250,
      "##о": 1251,
      "##з": 1252,
      "##в": 1253,
      "##д": 1254,
      "##т": 1255,
      "##ь": 1256,
      "##с": 1257,
      "##ш": 1258,
      "##к": 1259,
      "##٨": 1260,
      "##х": 1261,
      "##я": 1262,
      "##ν": 1263,
      "##ω": 1264,
      "##π": 1265,
      "##σ": 1266,
      "##ะ": 1267,
      "##เ": 1268,
      "##ท": 1269,
      "##ย": 1270,
      "##γ": 1271,
      "##φ": 1272,
      "##η": 1273,
      "##ל": 1274,
      "##מ": 1275,
      "##ן": 1276,
      "##β": 1277,
      "##→": 1278,
      "##Ø": 1279,
      "##Y": 1280,
      "##м": 1281,
      "##−": 1282,
      "##र": 1283,
      "##म": 1284,
      "##°": 1285,
      "##ܫ": 1286,
      "##ܘ": 1287,
      "##ܪ": 1288,
      "##র": 1289,
      "##ܝ": 1290,
      "##ܒ": 1291,
      "##ܢ": 1292,
      "##ڈ": 1293,
      "##ბ": 1294,
      "##ი": 1295,
      "##ლ": 1296,
      "##ს": 1297,
      "##ო": 1298,
      "##ა": 1299,
      "##ۃ": 1300,
      "##٥": 1301,
      "##٩": 1302,
      "##٧": 1303,
      "##٣": 1304,
      "##⁄": 1305,
      "##æ": 1306,
      "##J": 1307,
      "##¯": 1308,
      "##₂": 1309,
      "##١": 1310,
      "##٦": 1311,
      "##ҳ": 1312,
      "##Τ": 1313,
      "##α": 1314,
      "##ζ": 1315,
      "##ਰ": 1316,
      "##ਿ": 1317,
      "##ਸ": 1318,
      "##ਨ": 1319,
      "##٤": 1320,
      "##¬": 1321,
      "##ڵ": 1322,
      "##θ": 1323,
      "##ێ": 1324,
      "##ٱ": 1325,
      "##ש": 1326,
      "##ח": 1327,
      "##∈": 1328,
      "##±": 1329,
      "##נ": 1330,
      "##ז": 1331,
      "##ч": 1332,
      "##Ɵ": 1333,
      "##ø": 1334,
      "##ב": 1335,
      "##ר": 1336,
      "##ג": 1337,
      "##ц": 1338,
      "##≥": 1339,
      "##ि": 1340,
      "##त": 1341,
      "##ा": 1342,
      "##भ": 1343,
      "##п": 1344,
      "##श": 1345,
      "##व": 1346,
      "##द": 1347,
      "##य": 1348,
      "##ल": 1349,
      "##μ": 1350,
      "##ঙ": 1351,
      "##ক": 1352,
      "##ɨ": 1353,
      "##ˈ": 1354,
      "##ˇ": 1355,
      "##ր": 1356,
      "##ա": 1357,
      "##ք": 1358,
      "##ս": 1359,
      "##ে": 1360,
      "##া": 1361,
      "##হ": 1362,
      "##ন": 1363,
      "##ξ": 1364,
      "##δ": 1365,
      "##ہ": 1366,
      "##ھ": 1367,
      "##Δ": 1368,
      "##√": 1369,
      "##פ": 1370,
      "##כ": 1371,
      "##ה": 1372,
      "##ਾ": 1373,
      "##ڑ": 1374,
      "##և": 1375,
      "##ն": 1376,
      "##µ": 1377,
      "##˛": 1378,
      "##ո": 1379,
      "##ղ": 1380,
      "##թ": 1381,
      "##მ": 1382,
      "##უ": 1383,
      "##კ": 1384,
      "##ի": 1385,
      "##ł": 1386,
      "##ร": 1387,
      "##ม": 1388,
      "##อ": 1389,
      "##ด": 1390,
      "##า": 1391,
      "##ช": 1392,
      "##น": 1393,
      "##ว": 1394,
      "##ศ": 1395,
      "##ห": 1396,
      "##ส": 1397,
      "##ถ": 1398,
      "##і": 1399,
      "##դ": 1400,
      "##ʊ": 1401,
      "##ʿ": 1402,
      "##ю": 1403,
      "##ۈ": 1404,
      "##ړ": 1405,
      "##ւ": 1406,
      "##ծ": 1407,
      "##ð": 1408,
      "##ק": 1409,
      "##ے": 1410,
      "##ℓ": 1411,
      "##ڤ": 1412,
      "##←": 1413,
      "##≡": 1414,
      "##Ω": 1415,
      "##ß": 1416,
      "##ө": 1417,
      "##ɒ": 1418,
      "##²": 1419,
      "##ڌ": 1420,
      "##ں": 1421,
      "##þ": 1422,
      "##ј": 1423,
      "##ٹ": 1424,
      "##≤": 1425,
      "##ځ": 1426,
      "##ګ": 1427,
      "##մ": 1428,
      "##բ": 1429,
      "##տ": 1430,
      "##ŋ": 1431,
      "##χ": 1432,
      "##∪": 1433,
      "##Σ": 1434,
      "##⋅": 1435,
      "##կ": 1436,
      "##ʲ": 1437,
      "##ɑ": 1438,
      "##ɹ": 1439,
      "##П": 1440,
      "##М": 1441,
      "##Н": 1442,
      "##Е": 1443,
      "##ե": 1444,
      "##շ": 1445,
      "##ɪ": 1446,
      "##ψ": 1447,
      "##¼": 1448,
      "##ט": 1449,
      "##দ": 1450,
      "##г": 1451,
      "##א": 1452,
      "##ʰ": 1453,
      "##ɯ": 1454,
      "##ע": 1455,
      "##˚": 1456,
      "##յ": 1457,
      "##न": 1458,
      "##ם": 1459,
      "##¹": 1460,
      "##ɕ": 1461,
      "##պ": 1462,
      "##ᵛ": 1463,
      "##ց": 1464,
      "##ʒ": 1465,
      "##↑": 1466,
      "##ई": 1467,
      "##ɛ": 1468,
      "##ۍ": 1469,
      "##ਆ": 1470,
      "##լ": 1471,
      "##щ": 1472,
      "##ғ": 1473,
      "##რ": 1474,
      "##º": 1475,
      "##ी": 1476,
      "##प": 1477,
      "##∙": 1478,
      "##ি": 1479,
      "##ল": 1480,
      "##ট": 1481,
      "##ী": 1482,
      "##ך": 1483,
      "##ۊ": 1484,
      "##đ": 1485,
      "##К": 1486,
      "##Б": 1487,
      "##צ": 1488,
      "##ћ": 1489,
      "##ზ": 1490,
      "##ħ": 1491,
      "##ڪ": 1492,
      "##ʃ": 1493,
      "##ٶ": 1494,
      "##Г": 1495,
      "##ტ": 1496,
      "##ვ": 1497,
      "##∨": 1498,
      "##ф": 1499,
      "##ʁ": 1500,
      "##დ": 1501,
      "##រ": 1502,
      "##ម": 1503,
      "##¨": 1504,
      "##³": 1505,
      "##э": 1506,
      "##ባ": 1507,
      "##थ": 1508,
      "##Ε": 1509,
      "##Π": 1510,
      "##Η": 1511,
      "##ª": 1512,
      "##ค": 1513,
      "##ต": 1514,
      "##ध": 1515,
      "##ാ": 1516,
      "##ി": 1517,
      "##ക": 1518,
      "##ग": 1519,
      "##ड": 1520,
      "##½": 1521,
      "##ж": 1522,
      "##च": 1523,
      "##ɬ": 1524,
      "##ე": 1525,
      "##ნ": 1526,
      "##क": 1527,
      "##ष": 1528,
      "##ۏ": 1529,
      "##ण": 1530,
      "##չ": 1531,
      "##ಾ": 1532,
      "##ಮ": 1533,
      "##ು": 1534,
      "##ಂ": 1535,
      "##ಡ": 1536,
      "##ೕ": 1537,
      "##ವ": 1538,
      "##ರ": 1539,
      "##ɲ": 1540,
      "##ٸ": 1541,
      "##∧": 1542,
      "##վ": 1543,
      "##ா": 1544,
      "##ன": 1545,
      "##ம": 1546,
      "##ள": 1547,
      "##℅": 1548,
      "##≈": 1549,
      "##С": 1550,
      "##Р": 1551,
      "##˘": 1552,
      "##ং": 1553,
      "##ץ": 1554,
      "##ƒ": 1555,
      "##ह": 1556,
      "##¢": 1557,
      "##ਵ": 1558,
      "##ը": 1559,
      "##ो": 1560,
      "##Α": 1561,
      "##Ι": 1562,
      "##Λ": 1563,
      "##∆": 1564,
      "##ᴧ": 1565,
      "##గ": 1566,
      "##ం": 1567,
      "##ప": 1568,
      "##ⁱ": 1569,
      "##ᵉ": 1570,
      "##ˡ": 1571,
      "##℃": 1572,
      "##ɔ": 1573,
      "##ਮ": 1574,
      "##გ": 1575,
      "##හ": 1576,
      "##ා": 1577,
      "##А": 1578,
      "##Д": 1579,
      "##Х": 1580,
      "##Ш": 1581,
      "##О": 1582,
      "##˝": 1583,
      "##ম": 1584,
      "##ত": 1585,
      "##ܬ": 1586,
      "##ː": 1587,
      "##¦": 1588,
      "##ъ": 1589,
      "##ף": 1590,
      "##ې": 1591,
      "##հ": 1592,
      "##∇": 1593,
      "##ɾ": 1594,
      "##ɐ": 1595,
      "##қ": 1596,
      "##ұ": 1597,
      "##ʝ": 1598,
      "##÷": 1599,
      "##ռ": 1600,
      "##ब": 1601,
      "##ܠ": 1602,
      "##ܦ": 1603,
      "##ज": 1604,
      "##Ν": 1605,
      "##⁸": 1606,
      "##⁴": 1607,
      "##є": 1608,
      "##ट": 1609,
      "##ජ": 1610,
      "##ณ": 1611,
      "##ป": 1612,
      "##ℕ": 1613,
      "##խ": 1614,
      "##ϵ": 1615,
      "##∑": 1616,
      "##ਹ": 1617,
      "##ਲ": 1618,
      "##ɡ": 1619,
      "##ʷ": 1620,
      "##स": 1621,
      "##ә": 1622,
      "##ʾ": 1623,
      "##զ": 1624,
      "##ܕ": 1625,
      "##ܡ": 1626,
      "##ܐ": 1627,
      "##ϟ": 1628,
      "##ʌ": 1629,
      "##ɣ": 1630,
      "##ܣ": 1631,
      "##է": 1632,
      "##Ф": 1633,
      "##И": 1634,
      "##བ": 1635,
      "##ી": 1636,
      "##ર": 1637,
      "##ˤ": 1638,
      "##ʕ": 1639,
      "##ง": 1640,
      "##พ": 1641,
      "##ձ": 1642,
      "##ճ": 1643,
      "##ા": 1644,
      "##য": 1645,
      "##চ": 1646,
      "##ډ": 1647,
      "##₃": 1648,
      "##∗": 1649,
      "##գ": 1650,
      "##ำ": 1651,
      "##บ": 1652,
      "##ล": 1653,
      "##Ц": 1654,
      "##ხ": 1655,
      "##ײ": 1656,
      "##Т": 1657,
      "##ܥ": 1658,
      "##ɫ": 1659,
      "##ɵ": 1660,
      "##წ": 1661,
      "##ყ": 1662,
      "##ϕ": 1663,
      "##ټ": 1664,
      "##ږ": 1665,
      "##ʻ": 1666,
      "##ໄ": 1667,
      "##জ": 1668,
      "##ব": 1669,
      "##œ": 1670,
      "##⁵": 1671,
      "##თ": 1672,
      "##จ": 1673,
      "##ก": 1674,
      "##Υ": 1675,
      "##∩": 1676,
      "##ธ": 1677,
      "##ѣ": 1678,
      "##ப": 1679,
      "##ச": 1680,
      "##ǃ": 1681,
      "##ಸ": 1682,
      "##ನ": 1683,
      "##Ψ": 1684,
      "##ਤ": 1685,
      "##ჩ": 1686,
      "##ದ": 1687,
      "##ਜ": 1688,
      "##Ρ": 1689,
      "##Κ": 1690,
      "##ு": 1691,
      "##ர": 1692,
      "##ਗ": 1693,
      "##ҷ": 1694,
      "##ษ": 1695,
      "##ไ": 1696,
      "##വ": 1697,
      "##പ": 1698,
      "##ʑ": 1699,
      "##ʂ": 1700,
      "##ਇ": 1701,
      "##Э": 1702,
      "##პ": 1703,
      "##ञ": 1704,
      "##ٵ": 1705,
      "##አ": 1706,
      "##โ": 1707,
      "##⁰": 1708,
      "##⅔": 1709,
      "##⊆": 1710,
      "##Œ": 1711,
      "##ܨ": 1712,
      "##ফ": 1713,
      "##ந": 1714,
      "##த": 1715,
      "##ौ": 1716,
      "##Ο": 1717,
      "##Χ": 1718,
      "##ɦ": 1719,
      "##Л": 1720,
      "##ས": 1721,
      "##∞": 1722,
      "##Φ": 1723,
      "##ਕ": 1724,
      "##ੀ": 1725,
      "##ܟ": 1726,
      "##შ": 1727,
      "##ˮ": 1728,
      "##३": 1729,
      "##℉": 1730,
      "##փ": 1731,
      "##প": 1732,
      "##ؽ": 1733,
      "##ᵢ": 1734,
      "##ய": 1735,
      "##ி": 1736,
      "##ښ": 1737,
      "##ٿ": 1738,
      "##ይ": 1739,
      "##ǝ": 1740,
      "##ދ": 1741,
      "##ބ": 1742,
      "##ា": 1743,
      "##ស": 1744,
      "##ფ": 1745,
      "##ʔ": 1746,
      "##ਦ": 1747,
      "##↓": 1748,
      "##ܩ": 1749,
      "##ܛ": 1750,
      "##ᵻ": 1751,
      "##ધ": 1752,
      "##ซ": 1753,
      "##ү": 1754,
      "##⁺": 1755,
      "##ʹ": 1756,
      "##လ": 1757,
      "##း": 1758,
      "##У": 1759,
      "##∂": 1760,
      "##इ": 1761,
      "##ெ": 1762,
      "##Ҳ": 1763,
      "##ढ": 1764,
      "##ळ": 1765,
      "##ག": 1766,
      "##ֆ": 1767,
      "##ˀ": 1768,
      "##ჯ": 1769,
      "##ღ": 1770,
      "##އ": 1771,
      "##މ": 1772,
      "##ڭ": 1773,
      "##ۉ": 1774,
      "##ः": 1775,
      "##ջ": 1776,
      "##ਬ": 1777,
      "##স": 1778,
      "##ժ": 1779,
      "##Μ": 1780,
      "##ర": 1781,
      "##க": 1782,
      "##ძ": 1783,
      "##ۇ": 1784,
      "##ර": 1785,
      "##င": 1786,
      "##≫": 1787,
      "##₁": 1788,
      "##ქ": 1789,
      "##∠": 1790,
      "##Ա": 1791,
      "##↵": 1792,
      "##В": 1793,
      "##ओ": 1794,
      "##װ": 1795,
      "##ң": 1796,
      "##Ӏ": 1797,
      "##Я": 1798,
      "##હ": 1799,
      "##ન": 1800,
      "##દ": 1801,
      "##ே": 1802,
      "##ܗ": 1803,
      "##ਖ": 1804,
      "##⊕": 1805,
      "##ల": 1806,
      "##ు": 1807,
      "##Æ": 1808,
      "##Γ": 1809,
      "##¾": 1810,
      "##ല": 1811,
      "##ܙ": 1812,
      "##న": 1813,
      "##Є": 1814,
      "##څ": 1815,
      "##ಯ": 1816,
      "##ན": 1817,
      "##Θ": 1818,
      "##һ": 1819,
      "##മ": 1820,
      "##ܚ": 1821,
      "##∴": 1822,
      "##Ξ": 1823,
      "##ண": 1824,
      "##ც": 1825,
      "##⅓": 1826,
      "##Ə": 1827,
      "##ख": 1828,
      "##≪": 1829,
      "##ϸ": 1830,
      "##ˌ": 1831,
      "##₿": 1832,
      "##ผ": 1833,
      "##ય": 1834,
      "##ठ": 1835,
      "##⇛": 1836,
      "##ଦ": 1837,
      "##ଆ": 1838,
      "##ލ": 1839,
      "##ʳ": 1840,
      "##သ": 1841,
      "##က": 1842,
      "##ြ": 1843,
      "##⁻": 1844,
      "##¸": 1845,
      "##ˆ": 1846,
      "##ڠ": 1847,
      "##వ": 1848,
      "##ར": 1849,
      "##শ": 1850,
      "##Դ": 1851,
      "##Հ": 1852,
      "##Կ": 1853,
      "##ୀ": 1854,
      "##ਘ": 1855,
      "##љ": 1856,
      "##வ": 1857,
      "##ɘ": 1858,
      "##ޔ": 1859,
      "##ద": 1860,
      "##బ": 1861,
      "##⁶": 1862,
      "##ਣ": 1863,
      "##ড": 1864,
      "##ક": 1865,
      "##Ϸ": 1866,
      "##ϑ": 1867,
      "##ܓ": 1868,
      "##జ": 1869,
      "##⊇": 1870,
      "##ʉ": 1871,
      "##Þ": 1872,
      "##ᴠ": 1873,
      "##ல": 1874,
      "##օ": 1875,
      "##ည": 1876,
      "##န": 1877,
      "##˜": 1878,
      "##క": 1879,
      "##డ": 1880,
      "##Ь": 1881,
      "##ட": 1882,
      "##Յ": 1883,
      "##ڼ": 1884,
      "##∝": 1885,
      "##⁹": 1886,
      "##ܤ": 1887,
      "##ກ": 1888,
      "##Ձ": 1889,
      "##ര": 1890,
      "##२": 1891,
      "##З": 1892,
      "##મ": 1893,
      "##ɜ": 1894,
      "##ภ": 1895,
      "##ℷ": 1896,
      "##ਚ": 1897,
      "##တ": 1898,
      "##Β": 1899,
      "##ಪ": 1900,
      "##ግ": 1901,
      "##ೖ": 1902,
      "##ೂ": 1903,
      "##ʋ": 1904,
      "##आ": 1905,
      "##ஜ": 1906,
      "##మ": 1907,
      "##छ": 1908,
      "##ന": 1909,
      "##ത": 1910,
      "##ₙ": 1911,
      "##ǁ": 1912,
      "##WN": 1913,
      "ZWN": 1914,
      "ZWNJ": 1915,
      "##ان": 1916,
      "##ای": 1917,
      "##ار": 1918,
      "##ست": 1919,
      "##ین": 1920,
      "در": 1921,
      "##ند": 1922,
      "به": 1923,
      "می": 1924,
      "از": 1925,
      "##ود": 1926,
      "با": 1927,
      "##ید": 1928,
      "##ور": 1929,
      "این": 1930,
      "##اد": 1931,
      "که": 1932,
      "است": 1933,
      "بر": 1934,
      "##ال": 1935,
      "##ام": 1936,
      "را": 1937,
      "##رد": 1938,
      "ان": 1939,
      "##یر": 1940,
      "های": 1941,
      "##اه": 1942,
      "##لی": 1943,
      "##ات": 1944,
      "##ون": 1945,
      "##ری": 1946,
      "##شت": 1947,
      "شد": 1948,
      "##اب": 1949,
      "##یم": 1950,
      "هم": 1951,
      "تو": 1952,
      "ام": 1953,
      "##فت": 1954,
      "##از": 1955,
      "##رو": 1956,
      "رو": 1957,
      "کن": 1958,
      "برای": 1959,
      "کرد": 1960,
      "یک": 1961,
      "##سی": 1962,
      "ها": 1963,
      "##ول": 1964,
      "##اری": 1965,
      "##یت": 1966,
      "##را": 1967,
      "##انی": 1968,
      "خود": 1969,
      "ای": 1970,
      "##لا": 1971,
      "##اده": 1972,
      "##خت": 1973,
      "دار": 1974,
      "##گر": 1975,
      "بود": 1976,
      "مو": 1977,
      "##یز": 1978,
      "کار": 1979,
      "تا": 1980,
      "##های": 1981,
      "##تی": 1982,
      "شده": 1983,
      "من": 1984,
      "##وی": 1985,
      "خو": 1986,
      "##ده": 1987,
      "##رک": 1988,
      "##تر": 1989,
      "##می": 1990,
      "##اس": 1991,
      "مح": 1992,
      "شود": 1993,
      "##یش": 1994,
      "##مان": 1995,
      "سال": 1996,
      "باز": 1997,
      "##اشت": 1998,
      "##ایی": 1999,
      "توان": 2000,
      "##ها": 2001,
      "ال": 2002,
      "##یل": 2003,
      "یا": 2004,
      "باش": 2005,
      "کند": 2006,
      "دی": 2007,
      "دو": 2008,
      "بی": 2009,
      "##گی": 2010,
      "##گاه": 2011,
      "##ما": 2012,
      "تر": 2013,
      "اس": 2014,
      "اف": 2015,
      "##نی": 2016,
      "ده": 2017,
      "##ورد": 2018,
      "##انه": 2019,
      "دست": 2020,
      "مع": 2021,
      "##وان": 2022,
      "مد": 2023,
      "##وش": 2024,
      "او": 2025,
      "##بی": 2026,
      "##بت": 2027,
      "فر": 2028,
      "##بر": 2029,
      "##مای": 2030,
      "ار": 2031,
      "مت": 2032,
      "اند": 2033,
      "قر": 2034,
      "##یست": 2035,
      "##کن": 2036,
      "##زار": 2037,
      "سر": 2038,
      "دارد": 2039,
      "##جه": 2040,
      "داشت": 2041,
      "##نگ": 2042,
      "کنند": 2043,
      "##رف": 2044,
      "گر": 2045,
      "##هر": 2046,
      "##فته": 2047,
      "##یک": 2048,
      "مش": 2049,
      "##قی": 2050,
      "##وز": 2051,
      "##ادی": 2052,
      "##وم": 2053,
      "##فاده": 2054,
      "##ارد": 2055,
      "##له": 2056,
      "##اید": 2057,
      "نیز": 2058,
      "استفاده": 2059,
      "خواه": 2060,
      "##اره": 2061,
      "##وع": 2062,
      "هر": 2063,
      "##اخت": 2064,
      "هست": 2065,
      "##اف": 2066,
      "کم": 2067,
      "##امه": 2068,
      "اما": 2069,
      "کش": 2070,
      "##رکت": 2071,
      "کنید": 2072,
      "##وری": 2073,
      "کرده": 2074,
      "نظ": 2075,
      "پیش": 2076,
      "رس": 2077,
      "حال": 2078,
      "##اق": 2079,
      "ایر": 2080,
      "مس": 2081,
      "قرار": 2082,
      "##عد": 2083,
      "##که": 2084,
      "##دید": 2085,
      "##به": 2086,
      "##یا": 2087,
      "شرکت": 2088,
      "شما": 2089,
      "روز": 2090,
      "مق": 2091,
      "مر": 2092,
      "##عت": 2093,
      "باشد": 2094,
      "انت": 2095,
      "گذ": 2096,
      "##نده": 2097,
      "بد": 2098,
      "بخ": 2099,
      "##عی": 2100,
      "##جود": 2101,
      "دیگر": 2102,
      "نش": 2103,
      "مج": 2104,
      "##ستان": 2105,
      "دان": 2106,
      "##وت": 2107,
      "##وا": 2108,
      "ساز": 2109,
      "وی": 2110,
      "بسی": 2111,
      "##عه": 2112,
      "اش": 2113,
      "##فر": 2114,
      "عم": 2115,
      "##ورت": 2116,
      "##اط": 2117,
      "نام": 2118,
      "##خص": 2119,
      "##شی": 2120,
      "ما": 2121,
      "اد": 2122,
      "##نین": 2123,
      "##نا": 2124,
      "انج": 2125,
      "روی": 2126,
      "پس": 2127,
      "اب": 2128,
      "باید": 2129,
      "##مین": 2130,
      "ات": 2131,
      "جم": 2132,
      "مورد": 2133,
      "##وه": 2134,
      "دور": 2135,
      "بین": 2136,
      "نمای": 2137,
      "##الی": 2138,
      "داد": 2139,
      "##یری": 2140,
      "ایران": 2141,
      "بیشت": 2142,
      "شو": 2143,
      "تح": 2144,
      "##ایت": 2145,
      "کشور": 2146,
      "##لام": 2147,
      "تم": 2148,
      "##ره": 2149,
      "اج": 2150,
      "تن": 2151,
      "نس": 2152,
      "##کل": 2153,
      "اگر": 2154,
      "توس": 2155,
      "خواهد": 2156,
      "یکی": 2157,
      "##امل": 2158,
      "تص": 2159,
      "##قه": 2160,
      "نظر": 2161,
      "جدید": 2162,
      "عن": 2163,
      "همچ": 2164,
      "##اک": 2165,
      "زی": 2166,
      "اص": 2167,
      "۲۰": 2168,
      "##ریک": 2169,
      "##یده": 2170,
      "هستند": 2171,
      "##لف": 2172,
      "##یس": 2173,
      "وجود": 2174,
      "مه": 2175,
      "اق": 2176,
      "پر": 2177,
      "##لید": 2178,
      "عنوان": 2179,
      "چه": 2180,
      "نق": 2181,
      "اپ": 2182,
      "بازی": 2183,
      "##اند": 2184,
      "بز": 2185,
      "پی": 2186,
      "صورت": 2187,
      "##شته": 2188,
      "##نامه": 2189,
      "ساخت": 2190,
      "شهر": 2191,
      "##وس": 2192,
      "##مند": 2193,
      "دهد": 2194,
      "##یه": 2195,
      "افز": 2196,
      "##اص": 2197,
      "##وب": 2198,
      "جه": 2199,
      "چند": 2200,
      "اح": 2201,
      "اع": 2202,
      "انجام": 2203,
      "نمی": 2204,
      "پای": 2205,
      "داشته": 2206,
      "هایی": 2207,
      "ماه": 2208,
      "##اتی": 2209,
      "##کان": 2210,
      "##گان": 2211,
      "اول": 2212,
      "گو": 2213,
      "##رای": 2214,
      "##کس": 2215,
      "##صد": 2216,
      "راه": 2217,
      "داده": 2218,
      "اط": 2219,
      "##خی": 2220,
      "دا": 2221,
      "##در": 2222,
      "##ایش": 2223,
      "نو": 2224,
      "تولید": 2225,
      "نی": 2226,
      "بیشتر": 2227,
      "گفت": 2228,
      "ند": 2229,
      "بعد": 2230,
      "نیست": 2231,
      "گوش": 2232,
      "مط": 2233,
      "امریک": 2234,
      "##کی": 2235,
      "حد": 2236,
      "سه": 2237,
      "بزر": 2238,
      "##لو": 2239,
      "بخش": 2240,
      "##شن": 2241,
      "بسیار": 2242,
      "همچنین": 2243,
      "##ترین": 2244,
      "دانش": 2245,
      "##کت": 2246,
      "زمان": 2247,
      "##کر": 2248,
      "مث": 2249,
      "مان": 2250,
      "##فا": 2251,
      "##زی": 2252,
      "تب": 2253,
      "##ونه": 2254,
      "قاب": 2255,
      "پرو": 2256,
      "##ارت": 2257,
      "پرد": 2258,
      "میلی": 2259,
      "##حی": 2260,
      "هی": 2261,
      "##مانی": 2262,
      "کردن": 2263,
      "##مت": 2264,
      "فع": 2265,
      "دل": 2266,
      "##دا": 2267,
      "##نج": 2268,
      "سو": 2269,
      "دارند": 2270,
      "فیل": 2271,
      "##سته": 2272,
      "محص": 2273,
      "##ازی": 2274,
      "فرو": 2275,
      "مرد": 2276,
      "شوند": 2277,
      "##ایل": 2278,
      "##دی": 2279,
      "##اپ": 2280,
      "تواند": 2281,
      "##ینه": 2282,
      "شن": 2283,
      "##بان": 2284,
      "۱۹": 2285,
      "برنامه": 2286,
      "ترین": 2287,
      "تج": 2288,
      "اخ": 2289,
      "##عات": 2290,
      "کو": 2291,
      "انها": 2292,
      "بار": 2293,
      "##امی": 2294,
      "مص": 2295,
      "قب": 2296,
      "محصول": 2297,
      "نم": 2298,
      "بزرگ": 2299,
      "نمایش": 2300,
      "همین": 2301,
      "##سه": 2302,
      "##چه": 2303,
      "مخت": 2304,
      "گوشی": 2305,
      "افر": 2306,
      "خر": 2307,
      "##اح": 2308,
      "گرد": 2309,
      "##ونی": 2310,
      "زمین": 2311,
      "بازار": 2312,
      "بن": 2313,
      "توسط": 2314,
      "منت": 2315,
      "زند": 2316,
      "زیر": 2317,
      "بوده": 2318,
      "واق": 2319,
      "خودرو": 2320,
      "شم": 2321,
      "عر": 2322,
      "ارت": 2323,
      "توجه": 2324,
      "##لیل": 2325,
      "گی": 2326,
      "اطلا": 2327,
      "##۰۰": 2328,
      "اه": 2329,
      "همه": 2330,
      "جای": 2331,
      "امریکا": 2332,
      "##ازه": 2333,
      "##غی": 2334,
      "تع": 2335,
      "##زش": 2336,
      "##خاب": 2337,
      "گرفته": 2338,
      "حس": 2339,
      "سیست": 2340,
      "##دم": 2341,
      "گرفت": 2342,
      "کاربر": 2343,
      "مدیر": 2344,
      "##بین": 2345,
      "##راه": 2346,
      "فعال": 2347,
      "##یزی": 2348,
      "##با": 2349,
      "مختلف": 2350,
      "##ادر": 2351,
      "##ژه": 2352,
      "##بال": 2353,
      "شب": 2354,
      "اینکه": 2355,
      "##رسی": 2356,
      "##نه": 2357,
      "##کار": 2358,
      "فیلم": 2359,
      "##تاب": 2360,
      "قیم": 2361,
      "برد": 2362,
      "انتخاب": 2363,
      "اخت": 2364,
      "سیستم": 2365,
      "افزایش": 2366,
      "##فی": 2367,
      "##من": 2368,
      "کل": 2369,
      "سا": 2370,
      "فروش": 2371,
      "##راي": 2372,
      "هن": 2373,
      "##ثر": 2374,
      "جن": 2375,
      "همراه": 2376,
      "بگ": 2377,
      "وق": 2378,
      "شدن": 2379,
      "##عیت": 2380,
      "##یب": 2381,
      "کس": 2382,
      "##مل": 2383,
      "##شد": 2384,
      "۱۳": 2385,
      "بال": 2386,
      "نخ": 2387,
      "##ینی": 2388,
      "نیاز": 2389,
      "تغی": 2390,
      "##گری": 2391,
      "تنها": 2392,
      "بل": 2393,
      "نشان": 2394,
      "قیمت": 2395,
      "علا": 2396,
      "توانید": 2397,
      "ور": 2398,
      "هزار": 2399,
      "بیم": 2400,
      "کنیم": 2401,
      "همان": 2402,
      "تغییر": 2403,
      "تق": 2404,
      "خرید": 2405,
      "##خه": 2406,
      "گزار": 2407,
      "##شان": 2408,
      "سی": 2409,
      "طور": 2410,
      "##er": 2411,
      "##رس": 2412,
      "خان": 2413,
      "##دام": 2414,
      "عل": 2415,
      "زیادی": 2416,
      "خی": 2417,
      "##شر": 2418,
      "اعلام": 2419,
      "##رح": 2420,
      "سری": 2421,
      "ایج": 2422,
      "##زه": 2423,
      "##زد": 2424,
      "انگ": 2425,
      "مرا": 2426,
      "دلیل": 2427,
      "درصد": 2428,
      "ایجاد": 2429,
      "##جی": 2430,
      "تش": 2431,
      "هد": 2432,
      "##مال": 2433,
      "##مه": 2434,
      "مانند": 2435,
      "تاری": 2436,
      "میان": 2437,
      "##ژی": 2438,
      "گرو": 2439,
      "کر": 2440,
      "نه": 2441,
      "شه": 2442,
      "گل": 2443,
      "##گیری": 2444,
      "##کرد": 2445,
      "خط": 2446,
      "برخی": 2447,
      "هوش": 2448,
      "##هایی": 2449,
      "##ضی": 2450,
      "##قیق": 2451,
      "طرا": 2452,
      "دول": 2453,
      "یاد": 2454,
      "کتاب": 2455,
      "ادامه": 2456,
      "دستگاه": 2457,
      "مهم": 2458,
      "گزارش": 2459,
      "افراد": 2460,
      "حتی": 2461,
      "۲۰۱": 2462,
      "برگ": 2463,
      "##وط": 2464,
      "تمام": 2465,
      "کمک": 2466,
      "##بود": 2467,
      "اغ": 2468,
      "امکان": 2469,
      "رفت": 2470,
      "##نت": 2471,
      "تیم": 2472,
      "##یدا": 2473,
      "دید": 2474,
      "##وق": 2475,
      "هیچ": 2476,
      "زندگی": 2477,
      "کاه": 2478,
      "غیر": 2479,
      "##لب": 2480,
      "##بته": 2481,
      "##وص": 2482,
      "گروه": 2483,
      "##زینه": 2484,
      "سازمان": 2485,
      "البته": 2486,
      "##یف": 2487,
      "##لیت": 2488,
      "بسیاری": 2489,
      "##لیک": 2490,
      "مم": 2491,
      "اراي": 2492,
      "دهند": 2493,
      "ارايه": 2494,
      "##تری": 2495,
      "مدل": 2496,
      "سپ": 2497,
      "##توان": 2498,
      "کام": 2499,
      "##عث": 2500,
      "موض": 2501,
      "معم": 2502,
      "نسبت": 2503,
      "##رفی": 2504,
      "مشکل": 2505,
      "اصلی": 2506,
      "نا": 2507,
      "بیش": 2508,
      "##شم": 2509,
      "باعث": 2510,
      "دریا": 2511,
      "##باره": 2512,
      "نوع": 2513,
      "##دار": 2514,
      "ولی": 2515,
      "##رم": 2516,
      "کاهش": 2517,
      "##ریق": 2518,
      "##گه": 2519,
      "گذشته": 2520,
      "قط": 2521,
      "##ظه": 2522,
      "اطلاعات": 2523,
      "خار": 2524,
      "فض": 2525,
      "مشت": 2526,
      "پیدا": 2527,
      "میز": 2528,
      "حا": 2529,
      "عرض": 2530,
      "اشاره": 2531,
      "موضوع": 2532,
      "طراحی": 2533,
      "ممکن": 2534,
      "کردند": 2535,
      "گفته": 2536,
      "منط": 2537,
      "عمل": 2538,
      "##ودی": 2539,
      "##ندی": 2540,
      "##ابی": 2541,
      "باشید": 2542,
      "نفر": 2543,
      "##رات": 2544,
      "میلیون": 2545,
      "##بار": 2546,
      "رسید": 2547,
      "صف": 2548,
      "خبر": 2549,
      "##ومی": 2550,
      "احت": 2551,
      "مردم": 2552,
      "##سان": 2553,
      "ترک": 2554,
      "سایت": 2555,
      "##شه": 2556,
      "کاربران": 2557,
      "وارد": 2558,
      "سب": 2559,
      "مخ": 2560,
      "##تان": 2561,
      "##بط": 2562,
      "##اور": 2563,
      "##نان": 2564,
      "پشت": 2565,
      "##ویر": 2566,
      "##فق": 2567,
      "وا": 2568,
      "چهار": 2569,
      "##تما": 2570,
      "امرو": 2571,
      "##ویی": 2572,
      "توسعه": 2573,
      "طول": 2574,
      "بدون": 2575,
      "شخص": 2576,
      "صن": 2577,
      "##حه": 2578,
      "قابل": 2579,
      "تعد": 2580,
      "واقع": 2581,
      "مرک": 2582,
      "##شار": 2583,
      "فعالیت": 2584,
      "جز": 2585,
      "مشخص": 2586,
      "##انس": 2587,
      "سام": 2588,
      "داخ": 2589,
      "دنی": 2590,
      "وز": 2591,
      "##رین": 2592,
      "شک": 2593,
      "عرضه": 2594,
      "هوا": 2595,
      "منتشر": 2596,
      "ساعت": 2597,
      "##لس": 2598,
      "##سال": 2599,
      "اموز": 2600,
      "##یمی": 2601,
      "نسخه": 2602,
      "بالا": 2603,
      "##on": 2604,
      "مست": 2605,
      "سازی": 2606,
      "روش": 2607,
      "زبان": 2608,
      "مجم": 2609,
      "##یشن": 2610,
      "دارای": 2611,
      "##برد": 2612,
      "اولین": 2613,
      "##واه": 2614,
      "##اسب": 2615,
      "نفت": 2616,
      "هوشمند": 2617,
      "##in": 2618,
      "سای": 2619,
      "دانشگاه": 2620,
      "##بری": 2621,
      "جهان": 2622,
      "کسب": 2623,
      "##لیه": 2624,
      "رود": 2625,
      "دولت": 2626,
      "سن": 2627,
      "شکل": 2628,
      "قدر": 2629,
      "##ریان": 2630,
      "اپل": 2631,
      "فرد": 2632,
      "اور": 2633,
      "جمه": 2634,
      "اید": 2635,
      "منطقه": 2636,
      "معرفی": 2637,
      "##فه": 2638,
      "##قل": 2639,
      "فق": 2640,
      "##وار": 2641,
      "موفق": 2642,
      "دوربین": 2643,
      "##یدی": 2644,
      "زمانی": 2645,
      "سط": 2646,
      "##یشه": 2647,
      "حدود": 2648,
      "ملی": 2649,
      "باشند": 2650,
      "##باط": 2651,
      "##ابر": 2652,
      "اعت": 2653,
      "مجموع": 2654,
      "بهترین": 2655,
      "##یره": 2656,
      "رای": 2657,
      "دلار": 2658,
      "##ربه": 2659,
      "شبکه": 2660,
      "بهره": 2661,
      "##راف": 2662,
      "دریافت": 2663,
      "نزد": 2664,
      "نیر": 2665,
      "##فون": 2666,
      "تک": 2667,
      "ایم": 2668,
      "احتمال": 2669,
      "ابت": 2670,
      "##یکی": 2671,
      "##لت": 2672,
      "پرداز": 2673,
      "رنگ": 2674,
      "جمله": 2675,
      "غذ": 2676,
      "بررسی": 2677,
      "##وک": 2678,
      "میل": 2679,
      "افت": 2680,
      "زمینه": 2681,
      "بودند": 2682,
      "##گل": 2683,
      "##است": 2684,
      "قبل": 2685,
      "کوچ": 2686,
      "شاه": 2687,
      "حض": 2688,
      "##ولی": 2689,
      "دیگری": 2690,
      "اقت": 2691,
      "##مد": 2692,
      "محصولات": 2693,
      "ارتباط": 2694,
      "شرای": 2695,
      "توانند": 2696,
      "کننده": 2697,
      "پرداخت": 2698,
      "شرایط": 2699,
      "##ونا": 2700,
      "##رب": 2701,
      "رق": 2702,
      "##ازم": 2703,
      "۱۰": 2704,
      "مرب": 2705,
      "##یار": 2706,
      "##سر": 2707,
      "عب": 2708,
      "جنگ": 2709,
      "اک": 2710,
      "تاریخ": 2711,
      "خیلی": 2712,
      "##کنون": 2713,
      "مک": 2714,
      "دوره": 2715,
      "دن": 2716,
      "##اهی": 2717,
      "##سون": 2718,
      "کنار": 2719,
      "##يیس": 2720,
      "##یند": 2721,
      "طریق": 2722,
      "خاص": 2723,
      "پار": 2724,
      "اساس": 2725,
      "چنین": 2726,
      "اغاز": 2727,
      "##هران": 2728,
      "مدت": 2729,
      "صفحه": 2730,
      "قدرت": 2731,
      "شی": 2732,
      "اقتص": 2733,
      "##تیجه": 2734,
      "ته": 2735,
      "##الب": 2736,
      "پنج": 2737,
      "کود": 2738,
      "##صوص": 2739,
      "##این": 2740,
      "قابلیت": 2741,
      "یع": 2742,
      "وب": 2743,
      "##میم": 2744,
      "درباره": 2745,
      "چرا": 2746,
      "اض": 2747,
      "تهران": 2748,
      "جام": 2749,
      "##گذ": 2750,
      "استان": 2751,
      "نوی": 2752,
      "نخست": 2753,
      "##ران": 2754,
      "سف": 2755,
      "##or": 2756,
      "دوم": 2757,
      "فقط": 2758,
      "##اي": 2759,
      "یعنی": 2760,
      "##الات": 2761,
      "شامل": 2762,
      "مصرف": 2763,
      "گوگل": 2764,
      "جمهوری": 2765,
      "##گو": 2766,
      "شور": 2767,
      "##صل": 2768,
      "تعداد": 2769,
      "##کاری": 2770,
      "هنگ": 2771,
      "تاث": 2772,
      "مثل": 2773,
      "##گز": 2774,
      "##اسی": 2775,
      "طرح": 2776,
      "اپلیک": 2777,
      "سخت": 2778,
      "ثبت": 2779,
      "اثر": 2780,
      "جان": 2781,
      "گیرد": 2782,
      "ندارد": 2783,
      "رسد": 2784,
      "هزینه": 2785,
      "مای": 2786,
      "##an": 2787,
      "حق": 2788,
      "بهتر": 2789,
      "اینده": 2790,
      "##اله": 2791,
      "میزان": 2792,
      "دنبال": 2793,
      "##سم": 2794,
      "سرعت": 2795,
      "##ندگان": 2796,
      "شرو": 2797,
      "##دود": 2798,
      "سیا": 2799,
      "نتیجه": 2800,
      "ست": 2801,
      "##ar": 2802,
      "خانه": 2803,
      "خصوص": 2804,
      "پایان": 2805,
      "حضور": 2806,
      "هدف": 2807,
      "متح": 2808,
      "طب": 2809,
      "مسي": 2810,
      "##پی": 2811,
      "بتوان": 2812,
      "شاید": 2813,
      "اسلام": 2814,
      "برخ": 2815,
      "ريیس": 2816,
      "##یتی": 2817,
      "شدند": 2818,
      "کمی": 2819,
      "سرمای": 2820,
      "##هن": 2821,
      "تلا": 2822,
      "##ضر": 2823,
      "هنوز": 2824,
      "اپلیکیشن": 2825,
      "شروع": 2826,
      "خاط": 2827,
      "جهانی": 2828,
      "##فاوت": 2829,
      "مربوط": 2830,
      "سطح": 2831,
      "سفر": 2832,
      "ری": 2833,
      "##en": 2834,
      "موجود": 2835,
      "هو": 2836,
      "تاثیر": 2837,
      "بیشتری": 2838,
      "##دیل": 2839,
      "ساخته": 2840,
      "تبدیل": 2841,
      "علاوه": 2842,
      "پذ": 2843,
      "بودن": 2844,
      "فنا": 2845,
      "##ضا": 2846,
      "مب": 2847,
      "##ولا": 2848,
      "وقتی": 2849,
      "اجتما": 2850,
      "سرمایه": 2851,
      "خوبی": 2852,
      "تلف": 2853,
      "اقدام": 2854,
      "تجربه": 2855,
      "سرو": 2856,
      "صد": 2857,
      "##وست": 2858,
      "##امد": 2859,
      "##لاس": 2860,
      "کاری": 2861,
      "صح": 2862,
      "جذ": 2863,
      "مناسب": 2864,
      "مجموعه": 2865,
      "##امین": 2866,
      "اشت": 2867,
      "##پانی": 2868,
      "##اشته": 2869,
      "طرف": 2870,
      "##افه": 2871,
      "##اش": 2872,
      "برابر": 2873,
      "امن": 2874,
      "##ابت": 2875,
      "ارو": 2876,
      "نرم": 2877,
      "اینتر": 2878,
      "فناوری": 2879,
      "قد": 2880,
      "ویر": 2881,
      "##تور": 2882,
      "##خانه": 2883,
      "طی": 2884,
      "کلی": 2885,
      "##اران": 2886,
      "تصمیم": 2887,
      "گذاری": 2888,
      "ویژ": 2889,
      "##اهای": 2890,
      "موارد": 2891,
      "گیری": 2892,
      "##at": 2893,
      "قان": 2894,
      "چون": 2895,
      "تلاش": 2896,
      "##ینگ": 2897,
      "هفته": 2898,
      "کیل": 2899,
      "خدم": 2900,
      "موب": 2901,
      "امروز": 2902,
      "کوچک": 2903,
      "اجتماعی": 2904,
      "##وزه": 2905,
      "خواهند": 2906,
      "یه": 2907,
      "بان": 2908,
      "قس": 2909,
      "خانو": 2910,
      "سوی": 2911,
      "##جا": 2912,
      "پاس": 2913,
      "##ابل": 2914,
      "کیف": 2915,
      "کان": 2916,
      "حاضر": 2917,
      "اسی": 2918,
      "##یط": 2919,
      "گیر": 2920,
      "ویژگی": 2921,
      "جو": 2922,
      "بیماری": 2923,
      "##دان": 2924,
      "نقش": 2925,
      "##کسی": 2926,
      "۲۰۰": 2927,
      "##جر": 2928,
      "##00": 2929,
      "بع": 2930,
      "تای": 2931,
      "##کیل": 2932,
      "طبی": 2933,
      "##گرد": 2934,
      "چشم": 2935,
      "قسمت": 2936,
      "پروژه": 2937,
      "##گران": 2938,
      "یافت": 2939,
      "پیشر": 2940,
      "تحت": 2941,
      "محیط": 2942,
      "کنتر": 2943,
      "فرا": 2944,
      "حرف": 2945,
      "##ریم": 2946,
      "منظ": 2947,
      "وض": 2948,
      "دهید": 2949,
      "سامسون": 2950,
      "##کرو": 2951,
      "اورد": 2952,
      "لازم": 2953,
      "سامسونگ": 2954,
      "مالی": 2955,
      "محدود": 2956,
      "##وهای": 2957,
      "##يی": 2958,
      "##ابه": 2959,
      "۱۲": 2960,
      "انتق": 2961,
      "نمود": 2962,
      "شناخت": 2963,
      "##مز": 2964,
      "##مایی": 2965,
      "دوست": 2966,
      "##al": 2967,
      "شر": 2968,
      "نزدیک": 2969,
      "جل": 2970,
      "انر": 2971,
      "حوزه": 2972,
      "##لاح": 2973,
      "خور": 2974,
      "میلادی": 2975,
      "گست": 2976,
      "##سل": 2977,
      "سمت": 2978,
      "کامل": 2979,
      "##ابق": 2980,
      "##تل": 2981,
      "ارز": 2982,
      "خوب": 2983,
      "موبایل": 2984,
      "##es": 2985,
      "کنترل": 2986,
      "کال": 2987,
      "ایرانی": 2988,
      "##راین": 2989,
      "حالت": 2990,
      "ایفون": 2991,
      "اندازه": 2992,
      "##وند": 2993,
      "چیزی": 2994,
      "راح": 2995,
      "##رخ": 2996,
      "##سا": 2997,
      "##رده": 2998,
      "##شین": 2999,
      "مذ": 3000,
      "تان": 3001,
      "فکر": 3002,
      "##افی": 3003,
      "##دن": 3004,
      "افزار": 3005,
      "جا": 3006,
      "رشد": 3007,
      "حل": 3008,
      "خاطر": 3009,
      "مرکز": 3010,
      "##پا": 3011,
      "بح": 3012,
      "برند": 3013,
      "انسان": 3014,
      "روست": 3015,
      "پوش": 3016,
      "اسلامی": 3017,
      "خدمات": 3018,
      "ارزش": 3019,
      "درست": 3020,
      "##ولو": 3021,
      "مواد": 3022,
      "ویژه": 3023,
      "اخیر": 3024,
      "گاز": 3025,
      "##داشت": 3026,
      "پیر": 3027,
      "خانواده": 3028,
      "سایر": 3029,
      "انتظ": 3030,
      "رابط": 3031,
      "اضافه": 3032,
      "شان": 3033,
      "حک": 3034,
      "المل": 3035,
      "##طور": 3036,
      "مدیریت": 3037,
      "تصویر": 3038,
      "##ابع": 3039,
      "مل": 3040,
      "متر": 3041,
      "عامل": 3042,
      "کا": 3043,
      "گوید": 3044,
      "مشاه": 3045,
      "##لاف": 3046,
      "##وتی": 3047,
      "مغ": 3048,
      "مطال": 3049,
      "بناب": 3050,
      "چین": 3051,
      "انرژی": 3052,
      "اث": 3053,
      "اموزش": 3054,
      "نور": 3055,
      "وزیر": 3056,
      "سل": 3057,
      "بگیر": 3058,
      "##کتر": 3059,
      "اندرو": 3060,
      "دنیا": 3061,
      "بنابراین": 3062,
      "مار": 3063,
      "مسیر": 3064,
      "مثال": 3065,
      "تشکیل": 3066,
      "##تو": 3067,
      "##واره": 3068,
      "نص": 3069,
      "##اتر": 3070,
      "##گیر": 3071,
      "دارید": 3072,
      "حم": 3073,
      "فار": 3074,
      "گونه": 3075,
      "##میت": 3076,
      "بدن": 3077,
      "سپس": 3078,
      "پلی": 3079,
      "برخورد": 3080,
      "حالا": 3081,
      "##هایت": 3082,
      "سرویس": 3083,
      "جلو": 3084,
      "تخ": 3085,
      "لو": 3086,
      "داخلی": 3087,
      "معمولا": 3088,
      "اختیار": 3089,
      "عملکرد": 3090,
      "مقام": 3091,
      "متن": 3092,
      "##پر": 3093,
      "سنگ": 3094,
      "توی": 3095,
      "اکنون": 3096,
      "مشاهده": 3097,
      "محل": 3098,
      "موتور": 3099,
      "ظاه": 3100,
      "##ربی": 3101,
      "##کو": 3102,
      "شا": 3103,
      "جهت": 3104,
      "همکاری": 3105,
      "عکس": 3106,
      "##ایند": 3107,
      "وزار": 3108,
      "ساده": 3109,
      "##فاق": 3110,
      "پذیر": 3111,
      "حساب": 3112,
      "دادن": 3113,
      "کیفیت": 3114,
      "لح": 3115,
      "کرونا": 3116,
      "اون": 3117,
      "وزارت": 3118,
      "##طه": 3119,
      "کمپانی": 3120,
      "کنم": 3121,
      "لب": 3122,
      "انتظار": 3123,
      "شیر": 3124,
      "تحقیق": 3125,
      "زیاد": 3126,
      "تلفن": 3127,
      "##ضای": 3128,
      "پایین": 3129,
      "نبود": 3130,
      "##قت": 3131,
      "ازمای": 3132,
      "عض": 3133,
      "##اهم": 3134,
      "۱۸": 3135,
      "صرف": 3136,
      "##ندان": 3137,
      "##جم": 3138,
      "اتفاق": 3139,
      "ندار": 3140,
      "فضای": 3141,
      "پزش": 3142,
      "##الت": 3143,
      "شناس": 3144,
      "اقتصادی": 3145,
      "سرا": 3146,
      "نمایشگر": 3147,
      "وقت": 3148,
      "لی": 3149,
      "فوت": 3150,
      "بده": 3151,
      "زن": 3152,
      "موسی": 3153,
      "سوم": 3154,
      "##صر": 3155,
      "قصد": 3156,
      "احس": 3157,
      "بیان": 3158,
      "قل": 3159,
      "چیز": 3160,
      "##خش": 3161,
      "نگاه": 3162,
      "حالی": 3163,
      "تور": 3164,
      "هنر": 3165,
      "المللی": 3166,
      "گردش": 3167,
      "##وبی": 3168,
      "حاف": 3169,
      "نمونه": 3170,
      "##چی": 3171,
      "نویس": 3172,
      "##ظیم": 3173,
      "##تون": 3174,
      "کاملا": 3175,
      "کمتر": 3176,
      "نگه": 3177,
      "هنگام": 3178,
      "میلیارد": 3179,
      "خوش": 3180,
      "##it": 3181,
      "برگزار": 3182,
      "مرت": 3183,
      "سریع": 3184,
      "ایا": 3185,
      "بندی": 3186,
      "مشکلات": 3187,
      "داستان": 3188,
      "تهیه": 3189,
      "برق": 3190,
      "##اصله": 3191,
      "پیشنه": 3192,
      "نهایت": 3193,
      "نشده": 3194,
      "عملی": 3195,
      "پاسخ": 3196,
      "موس": 3197,
      "تامین": 3198,
      "20": 3199,
      "ره": 3200,
      "##یدن": 3201,
      "همیشه": 3202,
      "خواهید": 3203,
      "کیلوم": 3204,
      "تف": 3205,
      "بعدی": 3206,
      "پژ": 3207,
      "##گونه": 3208,
      "مرح": 3209,
      "انوا": 3210,
      "##ایج": 3211,
      "واح": 3212,
      "##جب": 3213,
      "طبق": 3214,
      "##بیه": 3215,
      "جی": 3216,
      "صنعت": 3217,
      "افزود": 3218,
      "یافته": 3219,
      "نیم": 3220,
      "حرکت": 3221,
      "انواع": 3222,
      "دقیق": 3223,
      "امده": 3224,
      "##شنبه": 3225,
      "کشورهای": 3226,
      "۱۵": 3227,
      "متحده": 3228,
      "دیده": 3229,
      "خودش": 3230,
      "##داری": 3231,
      "گلکسی": 3232,
      "##ریف": 3233,
      "عمومی": 3234,
      "##کته": 3235,
      "وضعیت": 3236,
      "تصا": 3237,
      "روند": 3238,
      "ابزار": 3239,
      "##le": 3240,
      "قانون": 3241,
      "خارج": 3242,
      "سین": 3243,
      "موسیقی": 3244,
      "ترا": 3245,
      "##خصص": 3246,
      "##ic": 3247,
      "محس": 3248,
      "##ویت": 3249,
      "فل": 3250,
      "##وي": 3251,
      "بسته": 3252,
      "بهبود": 3253,
      "احتمالا": 3254,
      "دوران": 3255,
      "##وید": 3256,
      "##یبانی": 3257,
      "مرحله": 3258,
      "جریان": 3259,
      "درامد": 3260,
      "برس": 3261,
      "##امبر": 3262,
      "##ظر": 3263,
      "نف": 3264,
      "پن": 3265,
      "احساس": 3266,
      "شوید": 3267,
      "##ناسی": 3268,
      "امد": 3269,
      "پشتیبانی": 3270,
      "##گون": 3271,
      "سخ": 3272,
      "دسترسی": 3273,
      "تری": 3274,
      "تمامی": 3275,
      "##ro": 3276,
      "نسل": 3277,
      "شمار": 3278,
      "نخستین": 3279,
      "مبت": 3280,
      "وس": 3281,
      "حافظه": 3282,
      "نوشته": 3283,
      "کسی": 3284,
      "ایالات": 3285,
      "معت": 3286,
      "##لق": 3287,
      "کارت": 3288,
      "##یتر": 3289,
      "کوت": 3290,
      "رسمی": 3291,
      "پردازنده": 3292,
      "مادر": 3293,
      "داخل": 3294,
      "##مون": 3295,
      "اجرای": 3296,
      "##سازی": 3297,
      "مز": 3298,
      "##بات": 3299,
      "حمل": 3300,
      "##راق": 3301,
      "ازمایش": 3302,
      "شناخته": 3303,
      "##ولوژی": 3304,
      "علی": 3305,
      "مدر": 3306,
      "علاقه": 3307,
      "##ایه": 3308,
      "##ویه": 3309,
      "##مندان": 3310,
      "##انیه": 3311,
      "منظور": 3312,
      "فراهم": 3313,
      "##شک": 3314,
      "##روف": 3315,
      "عق": 3316,
      "پول": 3317,
      "شهری": 3318,
      "بگذ": 3319,
      "طبیعی": 3320,
      "##یتال": 3321,
      "اختص": 3322,
      "باتری": 3323,
      "بخشی": 3324,
      "شخصی": 3325,
      "##هم": 3326,
      "نخواه": 3327,
      "داشتن": 3328,
      "نکته": 3329,
      "ران": 3330,
      "انتشار": 3331,
      "رابطه": 3332,
      "ظرف": 3333,
      "تلو": 3334,
      "نت": 3335,
      "##ومت": 3336,
      "موق": 3337,
      "کاربرد": 3338,
      "مشابه": 3339,
      "کره": 3340,
      "بینی": 3341,
      "تقری": 3342,
      "اجرا": 3343,
      "##اندن": 3344,
      "واحد": 3345,
      "تلویزی": 3346,
      "ویروس": 3347,
      "بانک": 3348,
      "امار": 3349,
      "##وله": 3350,
      "فصل": 3351,
      "ابتدا": 3352,
      "روسی": 3353,
      "پژوه": 3354,
      "نامه": 3355,
      "حف": 3356,
      "بلکه": 3357,
      "مف": 3358,
      "اطلاع": 3359,
      "شار": 3360,
      "تبلی": 3361,
      "اندروید": 3362,
      "فران": 3363,
      "اسپ": 3364,
      "نکرد": 3365,
      "اینترنت": 3366,
      "جامعه": 3367,
      "##ادل": 3368,
      "بلند": 3369,
      "##پیم": 3370,
      "کافی": 3371,
      "سلام": 3372,
      "وسی": 3373,
      "موفقیت": 3374,
      "مستق": 3375,
      "جدیدی": 3376,
      "فرایند": 3377,
      "نوشت": 3378,
      "منابع": 3379,
      "تازه": 3380,
      "محمد": 3381,
      "مقاله": 3382,
      "راست": 3383,
      "ترتی": 3384,
      "تکن": 3385,
      "اذ": 3386,
      "انگلی": 3387,
      "انتقال": 3388,
      "خورد": 3389,
      "رون": 3390,
      "گردد": 3391,
      "ایده": 3392,
      "مایکرو": 3393,
      "تبلیغ": 3394,
      "##وران": 3395,
      "میکن": 3396,
      "بیر": 3397,
      "توانست": 3398,
      "نصب": 3399,
      "جمع": 3400,
      "##رش": 3401,
      "فاصله": 3402,
      "درخ": 3403,
      "گزینه": 3404,
      "تنظیم": 3405,
      "متفاوت": 3406,
      "دقی": 3407,
      "##جو": 3408,
      "زیرا": 3409,
      "شورای": 3410,
      "گرفتن": 3411,
      "##گاب": 3412,
      "ترتیب": 3413,
      "##ابقه": 3414,
      "##ندگی": 3415,
      "سبک": 3416,
      "درمان": 3417,
      "فشار": 3418,
      "حمای": 3419,
      "مناط": 3420,
      "##خیص": 3421,
      "##نتی": 3422,
      "بست": 3423,
      "یاب": 3424,
      "اختصاص": 3425,
      "اروپا": 3426,
      "دسته": 3427,
      "تصاویر": 3428,
      "##سافت": 3429,
      "##گار": 3430,
      "صحبت": 3431,
      "عو": 3432,
      "توص": 3433,
      "مجلس": 3434,
      "##واست": 3435,
      "دستور": 3436,
      "اهمیت": 3437,
      "خلا": 3438,
      "##لاین": 3439,
      "امید": 3440,
      "کد": 3441,
      "##re": 3442,
      "##بور": 3443,
      "پیشنهاد": 3444,
      "مایکروسافت": 3445,
      "##شناس": 3446,
      "رشته": 3447,
      "##ایسه": 3448,
      "پیک": 3449,
      "##ستانی": 3450,
      "تقریبا": 3451,
      "ازاد": 3452,
      "هواپیم": 3453,
      "اخرین": 3454,
      "سیم": 3455,
      "ریا": 3456,
      "اجازه": 3457,
      "تاب": 3458,
      "پوست": 3459,
      "اولیه": 3460,
      "##عا": 3461,
      "هند": 3462,
      "خوان": 3463,
      "محسوب": 3464,
      "استاند": 3465,
      "##قا": 3466,
      "خارجی": 3467,
      "فرمان": 3468,
      "شکست": 3469,
      "نقل": 3470,
      "مجه": 3471,
      "رسیده": 3472,
      "##سیون": 3473,
      "استخ": 3474,
      "رفته": 3475,
      "حمله": 3476,
      "##ایع": 3477,
      "ورود": 3478,
      "ارسال": 3479,
      "امور": 3480,
      "پیام": 3481,
      "رز": 3482,
      "ویند": 3483,
      "مقابل": 3484,
      "مرگ": 3485,
      "سعی": 3486,
      "##عتی": 3487,
      "عراق": 3488,
      "هفت": 3489,
      "جست": 3490,
      "دری": 3491,
      "کامپی": 3492,
      "اثار": 3493,
      "پدر": 3494,
      "تکنولوژی": 3495,
      "کشت": 3496,
      "مشتریان": 3497,
      "مجهز": 3498,
      "پایه": 3499,
      "فوتبال": 3500,
      "مقایسه": 3501,
      "۱۱": 3502,
      "کوه": 3503,
      "حی": 3504,
      "##راک": 3505,
      "هسته": 3506,
      "ویندوز": 3507,
      "##st": 3508,
      "شاهد": 3509,
      "##رکز": 3510,
      "تاک": 3511,
      "تشخیص": 3512,
      "بش": 3513,
      "افرادی": 3514,
      "##سیس": 3515,
      "مطالعه": 3516,
      "تی": 3517,
      "حمایت": 3518,
      "تعی": 3519,
      "پاد": 3520,
      "هستید": 3521,
      "ببین": 3522,
      "تعیین": 3523,
      "فوق": 3524,
      "##رار": 3525,
      "لذ": 3526,
      "تحص": 3527,
      "امریکایی": 3528,
      "داریم": 3529,
      "##جوی": 3530,
      "دهه": 3531,
      "اقای": 3532,
      "پرس": 3533,
      "تس": 3534,
      "##ion": 3535,
      "پخش": 3536,
      "سود": 3537,
      "سیاسی": 3538,
      "##تا": 3539,
      "گرم": 3540,
      "بپ": 3541,
      "##ac": 3542,
      "چندین": 3543,
      "مناطق": 3544,
      "حفظ": 3545,
      "بعضی": 3546,
      "مرکزی": 3547,
      "##غان": 3548,
      "حقوق": 3549,
      "خواست": 3550,
      "موا": 3551,
      "دقیقه": 3552,
      "قدیمی": 3553,
      "متو": 3554,
      "فره": 3555,
      "جایی": 3556,
      "دنیای": 3557,
      "فرز": 3558,
      "##he": 3559,
      "اماده": 3560,
      "جدا": 3561,
      "##نای": 3562,
      "##نگی": 3563,
      "مهر": 3564,
      "روشن": 3565,
      "جذاب": 3566,
      "##دها": 3567,
      "##دد": 3568,
      "موجب": 3569,
      "خطر": 3570,
      "##گاهی": 3571,
      "سیاست": 3572,
      "نیروهای": 3573,
      "۳۰": 3574,
      "مطرح": 3575,
      "##صه": 3576,
      "ابر": 3577,
      "پاک": 3578,
      "راحتی": 3579,
      "ارد": 3580,
      "بالای": 3581,
      "روسیه": 3582,
      "مخاط": 3583,
      "##فاع": 3584,
      "زنان": 3585,
      "##دین": 3586,
      "گیگاب": 3587,
      "امنیت": 3588,
      "المان": 3589,
      "ذخ": 3590,
      "درون": 3591,
      "باقی": 3592,
      "##اقل": 3593,
      "##يو": 3594,
      "##چم": 3595,
      "ماشین": 3596,
      "کلید": 3597,
      "۱۶": 3598,
      "خون": 3599,
      "##ing": 3600,
      "بحث": 3601,
      "برج": 3602,
      "ضر": 3603,
      "کیلومتر": 3604,
      "ارام": 3605,
      "##فع": 3606,
      "##وتر": 3607,
      "برگز": 3608,
      "کردم": 3609,
      "ویدی": 3610,
      "اکس": 3611,
      "بدان": 3612,
      "بنی": 3613,
      "بس": 3614,
      "اعضای": 3615,
      "تایید": 3616,
      "##چار": 3617,
      "مشه": 3618,
      "مکان": 3619,
      "##کور": 3620,
      "##خته": 3621,
      "##ریه": 3622,
      "##قدر": 3623,
      "رقابت": 3624,
      "##اخ": 3625,
      "شع": 3626,
      "امسال": 3627,
      "##گرام": 3628,
      "۱۳۹": 3629,
      "اسیب": 3630,
      "عدم": 3631,
      "شارژ": 3632,
      "##اون": 3633,
      "##وانی": 3634,
      "اتاق": 3635,
      "زیب": 3636,
      "ورزش": 3637,
      "۱۴": 3638,
      "محب": 3639,
      "##قق": 3640,
      "##وزی": 3641,
      "سوال": 3642,
      "ترکیب": 3643,
      "بیمار": 3644,
      "مجازی": 3645,
      "قرارد": 3646,
      "مال": 3647,
      "رخ": 3648,
      "##سیم": 3649,
      "دیج": 3650,
      "هشت": 3651,
      "زیست": 3652,
      "چی": 3653,
      "مشترک": 3654,
      "اسن": 3655,
      "خواب": 3656,
      "سرد": 3657,
      "بند": 3658,
      "دوباره": 3659,
      "کوتاه": 3660,
      "حذ": 3661,
      "##اها": 3662,
      "##el": 3663,
      "توضی": 3664,
      "تغییرات": 3665,
      "جنوبی": 3666,
      "نح": 3667,
      "دخت": 3668,
      "جمعیت": 3669,
      "مدار": 3670,
      "##خصوص": 3671,
      "نظیر": 3672,
      "جلوگیری": 3673,
      "جنوب": 3674,
      "کودک": 3675,
      "همچون": 3676,
      "##ورتی": 3677,
      "کدام": 3678,
      "عضو": 3679,
      "پیچ": 3680,
      "باشیم": 3681,
      "نظامی": 3682,
      "تجاری": 3683,
      "پیشرفت": 3684,
      "همچنان": 3685,
      "عالی": 3686,
      "درجه": 3687,
      "##شید": 3688,
      "پژوهش": 3689,
      "فرص": 3690,
      "علمی": 3691,
      "استاندارد": 3692,
      "شمال": 3693,
      "اظه": 3694,
      "معروف": 3695,
      "رم": 3696,
      "##امپ": 3697,
      "زد": 3698,
      "حرفه": 3699,
      "۲۵": 3700,
      "مساف": 3701,
      "شبیه": 3702,
      "سفید": 3703,
      "مواجه": 3704,
      "قرن": 3705,
      "توانایی": 3706,
      "##ed": 3707,
      "ماده": 3708,
      "تفاوت": 3709,
      "##دیگر": 3710,
      "علت": 3711,
      "وزن": 3712,
      "انگلیسی": 3713,
      "لین": 3714,
      "##رت": 3715,
      "مقدار": 3716,
      "##کنان": 3717,
      "قهر": 3718,
      "بهداشت": 3719,
      "##ou": 3720,
      "تاریخی": 3721,
      "##گیرد": 3722,
      "مختلفی": 3723,
      "رفتار": 3724,
      "قادر": 3725,
      "درخواست": 3726,
      "##نز": 3727,
      "ژاپ": 3728,
      "گاهی": 3729,
      "توضیح": 3730,
      "صادر": 3731,
      "۱۹۹": 3732,
      "رسانه": 3733,
      "انلاین": 3734,
      "مراج": 3735,
      "ساختمان": 3736,
      "تد": 3737,
      "جوان": 3738,
      "##اج": 3739,
      "محبوب": 3740,
      "روید": 3741,
      "حداقل": 3742,
      "##ستی": 3743,
      "##امت": 3744,
      "انگیز": 3745,
      "##وریت": 3746,
      "ذخیره": 3747,
      "فرهنگ": 3748,
      "گراف": 3749,
      "نب": 3750,
      "مثلا": 3751,
      "خاک": 3752,
      "داشتند": 3753,
      "ایست": 3754,
      "واقعی": 3755,
      "خواهیم": 3756,
      "شهرستان": 3757,
      "قبلی": 3758,
      "تل": 3759,
      "درد": 3760,
      "الکتر": 3761,
      "##اساس": 3762,
      "جالب": 3763,
      "رسیدن": 3764,
      "اسم": 3765,
      "نکن": 3766,
      "حتما": 3767,
      "##اورد": 3768,
      "تومان": 3769,
      "##هنگی": 3770,
      "بروز": 3771,
      "##وعی": 3772,
      "براساس": 3773,
      "نیروی": 3774,
      "خرو": 3775,
      "##کند": 3776,
      "##۲۰": 3777,
      "کامپیوتر": 3778,
      "گذاشت": 3779,
      "کودکان": 3780,
      "۱۰۰": 3781,
      "تاکید": 3782,
      "##et": 3783,
      "کاربری": 3784,
      "نگر": 3785,
      "##قد": 3786,
      "انجا": 3787,
      "منجر": 3788,
      "مخصوص": 3789,
      "میش": 3790,
      "شماره": 3791,
      "مستقیم": 3792,
      "##om": 3793,
      "##افق": 3794,
      "مسيله": 3795,
      "جشن": 3796,
      "##شون": 3797,
      "فروشگاه": 3798,
      "حذف": 3799,
      "فایل": 3800,
      "دهنده": 3801,
      "فرهنگی": 3802,
      "تاسیس": 3803,
      "ضد": 3804,
      "ذهن": 3805,
      "##وف": 3806,
      "##انت": 3807,
      "اظهار": 3808,
      "نتایج": 3809,
      "مشتری": 3810,
      "##وسی": 3811,
      "رونمایی": 3812,
      "##یلی": 3813,
      "یابد": 3814,
      "یون": 3815,
      "هستیم": 3816,
      "جایزه": 3817,
      "شخصیت": 3818,
      "لباس": 3819,
      "##دای": 3820,
      "پل": 3821,
      "201": 3822,
      "دم": 3823,
      "انچه": 3824,
      "الع": 3825,
      "فرانسه": 3826,
      "ماند": 3827,
      "متوجه": 3828,
      "میدان": 3829,
      "##داران": 3830,
      "دستی": 3831,
      "نداشت": 3832,
      "مهند": 3833,
      "ظرفیت": 3834,
      "گسترده": 3835,
      "پرچم": 3836,
      "مام": 3837,
      "برخوردار": 3838,
      "دچار": 3839,
      "معاون": 3840,
      "ساله": 3841,
      "مگ": 3842,
      "سق": 3843,
      "ریزی": 3844,
      "پلاس": 3845,
      "هتل": 3846,
      "##رز": 3847,
      "وسیله": 3848,
      "جاری": 3849,
      "نقطه": 3850,
      "جذب": 3851,
      "##حل": 3852,
      "##بانی": 3853,
      "ابی": 3854,
      "خاصی": 3855,
      "##ابان": 3856,
      "##کنش": 3857,
      "اغلب": 3858,
      "دیگران": 3859,
      "عه": 3860,
      "10": 3861,
      "##ادگی": 3862,
      "پزشکی": 3863,
      "غذایی": 3864,
      "دادند": 3865,
      "##اصل": 3866,
      "سوخت": 3867,
      "خودروهای": 3868,
      "اینجا": 3869,
      "خودروی": 3870,
      "امکانات": 3871,
      "بگیرید": 3872,
      "نهایی": 3873,
      "خصوصی": 3874,
      "علیه": 3875,
      "مسل": 3876,
      "گویند": 3877,
      "دانست": 3878,
      "کارهای": 3879,
      "##نو": 3880,
      "ندارند": 3881,
      "طولانی": 3882,
      "اصفه": 3883,
      "بریت": 3884,
      "صند": 3885,
      "عبارت": 3886,
      "نداشته": 3887,
      "اتح": 3888,
      "یکدیگر": 3889,
      "بازگ": 3890,
      "کی": 3891,
      "##مر": 3892,
      "نخواهد": 3893,
      "واقعیت": 3894,
      "##ابط": 3895,
      "وظ": 3896,
      "تعریف": 3897,
      "۱۷": 3898,
      "انتخابات": 3899,
      "فنی": 3900,
      "عملیات": 3901,
      "صدای": 3902,
      "##شا": 3903,
      "گیرند": 3904,
      "##ستا": 3905,
      "زاده": 3906,
      "مشغ": 3907,
      "محلی": 3908,
      "##am": 3909,
      "پارک": 3910,
      "تحلیل": 3911,
      "##ادهای": 3912,
      "اقتصاد": 3913,
      "##ايل": 3914,
      "محت": 3915,
      "بیرون": 3916,
      "بنا": 3917,
      "شنبه": 3918,
      "رست": 3919,
      "تاکنون": 3920,
      "اشنا": 3921,
      "هواوی": 3922,
      "##وده": 3923,
      "##ارید": 3924,
      "اندازی": 3925,
      "نرخ": 3926,
      "باشگاه": 3927,
      "##اموش": 3928,
      "اتش": 3929,
      "الکترون": 3930,
      "باور": 3931,
      "مرور": 3932,
      "نوعی": 3933,
      "مسابق": 3934,
      "نبا": 3935,
      "پلت": 3936,
      "##تح": 3937,
      "##واج": 3938,
      "مقامات": 3939,
      "تماس": 3940,
      "پست": 3941,
      "مها": 3942,
      "برداری": 3943,
      "فرصت": 3944,
      "بازدید": 3945,
      "تحصیل": 3946,
      "سیاه": 3947,
      "##بیر": 3948,
      "شدت": 3949,
      "تلویزیون": 3950,
      "محتو": 3951,
      "پا": 3952,
      "مطلب": 3953,
      "##وین": 3954,
      "##is": 3955,
      "دش": 3956,
      "مسابقات": 3957,
      "نمایشگاه": 3958,
      "شای": 3959,
      "زیبا": 3960,
      "انس": 3961,
      "گذاشته": 3962,
      "بریتانی": 3963,
      "انقل": 3964,
      "##ظت": 3965,
      "جزيی": 3966,
      "مشغول": 3967,
      "پرواز": 3968,
      "##غل": 3969,
      "درک": 3970,
      "##مات": 3971,
      "##ایر": 3972,
      "رد": 3973,
      "شمالی": 3974,
      "##وریه": 3975,
      "اصفهان": 3976,
      "مراسم": 3977,
      "ماس": 3978,
      "کلاس": 3979,
      "محقق": 3980,
      "لیست": 3981,
      "ظاهر": 3982,
      "##سور": 3983,
      "زده": 3984,
      "صورتی": 3985,
      "مسيول": 3986,
      "گردشگری": 3987,
      "بور": 3988,
      "حز": 3989,
      "##as": 3990,
      "مراجعه": 3991,
      "تجه": 3992,
      "امر": 3993,
      "روح": 3994,
      "سان": 3995,
      "تبلت": 3996,
      "الی": 3997,
      "ذکر": 3998,
      "تجهیز": 3999,
      "جد": 4000,
      "تمرکز": 4001,
      "مرتبط": 4002,
      "روزنامه": 4003,
      "کنندگان": 4004,
      "موقعیت": 4005,
      "اشتب": 4006,
      "کسانی": 4007,
      "##قات": 4008,
      "شناسایی": 4009,
      "گسترش": 4010,
      "الکت": 4011,
      "روابط": 4012,
      "رده": 4013,
      "##ot": 4014,
      "بگیرد": 4015,
      "چال": 4016,
      "پت": 4017,
      "امنیتی": 4018,
      "اینچی": 4019,
      "چگونه": 4020,
      "##اظ": 4021,
      "۲۴": 4022,
      "ثانیه": 4023,
      "شش": 4024,
      "##یکس": 4025,
      "لپ": 4026,
      "گیگابایت": 4027,
      "بزن": 4028,
      "##بح": 4029,
      "نباید": 4030,
      "##رال": 4031,
      "لذت": 4032,
      "توافق": 4033,
      "وال": 4034,
      "حجم": 4035,
      "شدید": 4036,
      "##گانه": 4037,
      "معنی": 4038,
      "دقت": 4039,
      "دام": 4040,
      "##جان": 4041,
      "چاپ": 4042,
      "مقا": 4043,
      "گران": 4044,
      "دیجیتال": 4045,
      "##غذ": 4046,
      "افغان": 4047,
      "مناس": 4048,
      "حاصل": 4049,
      "تما": 4050,
      "##میر": 4051,
      "##ویل": 4052,
      "عهده": 4053,
      "##تن": 4054,
      "رهبر": 4055,
      "نیمه": 4056,
      "امتی": 4057,
      "##ریب": 4058,
      "##طان": 4059,
      "علوم": 4060,
      "چینی": 4061,
      "فرود": 4062,
      "پلتفر": 4063,
      "##ژن": 4064,
      "بزرگی": 4065,
      "##ch": 4066,
      "راحت": 4067,
      "بالایی": 4068,
      "وید": 4069,
      "##ماد": 4070,
      "بک": 4071,
      "گیاه": 4072,
      "صنایع": 4073,
      "تحقیقات": 4074,
      "جایگز": 4075,
      "##il": 4076,
      "##لاک": 4077,
      "گذار": 4078,
      "عمر": 4079,
      "ماهی": 4080,
      "روزانه": 4081,
      "##گذاری": 4082,
      "شهرد": 4083,
      "پیاده": 4084,
      "افزاری": 4085,
      "تحریم": 4086,
      "ساختار": 4087,
      "امروزه": 4088,
      "جایگاه": 4089,
      "بتواند": 4090,
      "غربی": 4091,
      "سلامت": 4092,
      "ضمن": 4093,
      "کف": 4094,
      "اطراف": 4095,
      "##طر": 4096,
      "مانده": 4097,
      "تست": 4098,
      "تیر": 4099,
      "مکانی": 4100,
      "حزب": 4101,
      "برگزاری": 4102,
      "خیابان": 4103,
      "##شاه": 4104,
      "رت": 4105,
      "عک": 4106,
      "نکرده": 4107,
      "مصن": 4108,
      "قوان": 4109,
      "سهام": 4110,
      "متعد": 4111,
      "کشته": 4112,
      "ترکیه": 4113,
      "رفتن": 4114,
      "نماید": 4115,
      "تاپ": 4116,
      "کشف": 4117,
      "دولتی": 4118,
      "مبار": 4119,
      "فرم": 4120,
      "توصیه": 4121,
      "##رافی": 4122,
      "سخن": 4123,
      "##يت": 4124,
      "اینستا": 4125,
      "##حال": 4126,
      "فارسی": 4127,
      "اخر": 4128,
      "##باز": 4129,
      "##ol": 4130,
      "##گن": 4131,
      "فیز": 4132,
      "موزه": 4133,
      "صدا": 4134,
      "متخصص": 4135,
      "مشاور": 4136,
      "بیت": 4137,
      "هرچ": 4138,
      "فهر": 4139,
      "پوشش": 4140,
      "پلیس": 4141,
      "درو": 4142,
      "##پد": 4143,
      "ازد": 4144,
      "واکنش": 4145,
      "مبل": 4146,
      "نقاط": 4147,
      "قالب": 4148,
      "اعمال": 4149,
      "غذا": 4150,
      "نار": 4151,
      "اکثر": 4152,
      "مصنوعی": 4153,
      "تراشه": 4154,
      "خبری": 4155,
      "اجر": 4156,
      "نحوه": 4157,
      "فردی": 4158,
      "بازاری": 4159,
      "##داف": 4160,
      "ادم": 4161,
      "صبح": 4162,
      "ریاست": 4163,
      "حاک": 4164,
      "نشست": 4165,
      "سراسر": 4166,
      "یادگیری": 4167,
      "##ad": 4168,
      "سامانه": 4169,
      "خودتان": 4170,
      "رمز": 4171,
      "وان": 4172,
      "خودم": 4173,
      "کارگرد": 4174,
      "##گانی": 4175,
      "پلتفرم": 4176,
      "##روم": 4177,
      "رایگان": 4178,
      "اکت": 4179,
      "محم": 4180,
      "حکومت": 4181,
      "اشتراک": 4182,
      "بازگشت": 4183,
      "اصلاح": 4184,
      "##کز": 4185,
      "##بع": 4186,
      "میتوان": 4187,
      "روان": 4188,
      "۵۰": 4189,
      "مدتی": 4190,
      "جدی": 4191,
      "امتیاز": 4192,
      "اداره": 4193,
      "چیست": 4194,
      "##مي": 4195,
      "چندان": 4196,
      "ارتش": 4197,
      "اینترنتی": 4198,
      "معماری": 4199,
      "چرخ": 4200,
      "خد": 4201,
      "استارت": 4202,
      "##اکس": 4203,
      "اعتماد": 4204,
      "سبب": 4205,
      "اسراي": 4206,
      "##سب": 4207,
      "اشتباه": 4208,
      "ناشی": 4209,
      "میشه": 4210,
      "کردیم": 4211,
      "##OS": 4212,
      "اورده": 4213,
      "متع": 4214,
      "دکتر": 4215,
      "##لال": 4216,
      "موثر": 4217,
      "نیستند": 4218,
      "دسترس": 4219,
      "مخال": 4220,
      "پروت": 4221,
      "مطمي": 4222,
      "فلس": 4223,
      "##گین": 4224,
      "##ریح": 4225,
      "##nd": 4226,
      "قوانین": 4227,
      "شناسی": 4228,
      "نج": 4229,
      "محتوای": 4230,
      "اوری": 4231,
      "ستاره": 4232,
      "جلسه": 4233,
      "عین": 4234,
      "فرزند": 4235,
      "عقب": 4236,
      "ژوي": 4237,
      "عبور": 4238,
      "نوا": 4239,
      "زنده": 4240,
      "##يین": 4241,
      "فول": 4242,
      "تصور": 4243,
      "مغز": 4244,
      "مدرسه": 4245,
      "زیبایی": 4246,
      "کارشناس": 4247,
      "کری": 4248,
      "اسک": 4249,
      "اموزشی": 4250,
      "الگ": 4251,
      "عز": 4252,
      "رستوران": 4253,
      "##گزاری": 4254,
      "بدنه": 4255,
      "دیگه": 4256,
      "گشت": 4257,
      "قدرتمند": 4258,
      "مسابقه": 4259,
      "انکه": 4260,
      "رتبه": 4261,
      "العاده": 4262,
      "لط": 4263,
      "ببر": 4264,
      "اهنگ": 4265,
      "راهی": 4266,
      "اینستاگرام": 4267,
      "سنتی": 4268,
      "تقسیم": 4269,
      "##ارش": 4270,
      "دیدن": 4271,
      "لحاظ": 4272,
      "میخ": 4273,
      "##مپ": 4274,
      "##هام": 4275,
      "ثابت": 4276,
      "مهارت": 4277,
      "قرارداد": 4278,
      "۱۹۸": 4279,
      "دفت": 4280,
      "##رسانی": 4281,
      "##جمه": 4282,
      "کالا": 4283,
      "سلول": 4284,
      "##روش": 4285,
      "##وال": 4286,
      "صنعتی": 4287,
      "فضایی": 4288,
      "بودجه": 4289,
      "لحظه": 4290,
      "اساسی": 4291,
      "مگاپ": 4292,
      "بخواه": 4293,
      "##هره": 4294,
      "##گذار": 4295,
      "اسب": 4296,
      "سریال": 4297,
      "معتقد": 4298,
      "عرب": 4299,
      "بالاتر": 4300,
      "انقلاب": 4301,
      "مذاک": 4302,
      "جزیره": 4303,
      "انان": 4304,
      "غرب": 4305,
      "##کا": 4306,
      "افغانستان": 4307,
      "مرز": 4308,
      "زدن": 4309,
      "##دال": 4310,
      "اهداف": 4311,
      "استق": 4312,
      "کلا": 4313,
      "##دهی": 4314,
      "ژان": 4315,
      "##دهم": 4316,
      "بیمه": 4317,
      "چالش": 4318,
      "مدیران": 4319,
      "روستا": 4320,
      "بچه": 4321,
      "شیوه": 4322,
      "##ستگی": 4323,
      "روزهای": 4324,
      "##غال": 4325,
      "شرقی": 4326,
      "سهم": 4327,
      "الب": 4328,
      "تخصص": 4329,
      "ترس": 4330,
      "مثبت": 4331,
      "قوی": 4332,
      "محاف": 4333,
      "محک": 4334,
      "ارزی": 4335,
      "تجهیزات": 4336,
      "همز": 4337,
      "##ادیه": 4338,
      "خرد": 4339,
      "خدا": 4340,
      "باشه": 4341,
      "##زمین": 4342,
      "بیشترین": 4343,
      "نان": 4344,
      "مسايل": 4345,
      "باغ": 4346,
      "تقویت": 4347,
      "##id": 4348,
      "دهیم": 4349,
      "جع": 4350,
      "نک": 4351,
      "صاح": 4352,
      "امپ": 4353,
      "فهرست": 4354,
      "فرض": 4355,
      "##راض": 4356,
      "نویسنده": 4357,
      "##غن": 4358,
      "برسد": 4359,
      "روب": 4360,
      "گردید": 4361,
      "واقعا": 4362,
      "##راج": 4363,
      "انسانی": 4364,
      "##وگ": 4365,
      "نویسی": 4366,
      "درخت": 4367,
      "اطلاعاتی": 4368,
      "مول": 4369,
      "فیس": 4370,
      "دیدار": 4371,
      "مشهور": 4372,
      "قطع": 4373,
      "سبز": 4374,
      "##رداز": 4375,
      "مفید": 4376,
      "شهرهای": 4377,
      "همسر": 4378,
      "منتقل": 4379,
      "مجبور": 4380,
      "تجارت": 4381,
      "##مع": 4382,
      "اصلا": 4383,
      "داره": 4384,
      "حو": 4385,
      "مقر": 4386,
      "ازدواج": 4387,
      "دوستان": 4388,
      "دفتر": 4389,
      "اتص": 4390,
      "پال": 4391,
      "تمای": 4392,
      "اگه": 4393,
      "مند": 4394,
      "حقیق": 4395,
      "نوت": 4396,
      "زود": 4397,
      "رقم": 4398,
      "تون": 4399,
      "ایکس": 4400,
      "اتحادیه": 4401,
      "مفه": 4402,
      "##ادا": 4403,
      "فی": 4404,
      "اتوم": 4405,
      "ریز": 4406,
      "##عامل": 4407,
      "مهمی": 4408,
      "اهل": 4409,
      "رسان": 4410,
      "منفی": 4411,
      "رک": 4412,
      "بزرگترین": 4413,
      "دیجی": 4414,
      "##ویری": 4415,
      "لینک": 4416,
      "استرات": 4417,
      "جاده": 4418,
      "بریتانیا": 4419,
      "عدد": 4420,
      "سنسور": 4421,
      "شهرو": 4422,
      "هوایی": 4423,
      "رع": 4424,
      "خریداری": 4425,
      "##زا": 4426,
      "اگرچه": 4427,
      "دانل": 4428,
      "##اتو": 4429,
      "بیست": 4430,
      "ژاپن": 4431,
      "##عده": 4432,
      "عص": 4433,
      "بدین": 4434,
      "نظام": 4435,
      "موسسه": 4436,
      "##داد": 4437,
      "وح": 4438,
      "ارزان": 4439,
      "##شناسی": 4440,
      "##ریز": 4441,
      "رژ": 4442,
      "جلب": 4443,
      "بدانید": 4444,
      "منبع": 4445,
      "مشخصات": 4446,
      "مراکز": 4447,
      "##سول": 4448,
      "امیدوار": 4449,
      "ترامپ": 4450,
      "دع": 4451,
      "منح": 4452,
      "##ولیت": 4453,
      "بنز": 4454,
      "ول": 4455,
      "شاخص": 4456,
      "محدودیت": 4457,
      "معنای": 4458,
      "هرچند": 4459,
      "تبلیغات": 4460,
      "کنه": 4461,
      "##جد": 4462,
      "چهارم": 4463,
      "##ct": 4464,
      "ترجمه": 4465,
      "خانم": 4466,
      "##iv": 4467,
      "طل": 4468,
      "سونی": 4469,
      "ویت": 4470,
      "##ig": 4471,
      "اصل": 4472,
      "ازادی": 4473,
      "تعدادی": 4474,
      "پدید": 4475,
      "دختر": 4476,
      "برده": 4477,
      "مدیرعامل": 4478,
      "گذر": 4479,
      "۱۹۷": 4480,
      "پیکسل": 4481,
      "انگشت": 4482,
      "##کش": 4483,
      "مبتنی": 4484,
      "##قیه": 4485,
      "هنگامی": 4486,
      "##رخه": 4487,
      "ارتباطات": 4488,
      "##ent": 4489,
      "رسانی": 4490,
      "میشود": 4491,
      "ورز": 4492,
      "بودم": 4493,
      "استاد": 4494,
      "##پل": 4495,
      "##روی": 4496,
      "خارجه": 4497,
      "همواره": 4498,
      "##وای": 4499,
      "۴۰": 4500,
      "همزمان": 4501,
      "متوس": 4502,
      "##us": 4503,
      "##اشق": 4504,
      "عج": 4505,
      "لایه": 4506,
      "معل": 4507,
      "فعلی": 4508,
      "بازاریابی": 4509,
      "مدرن": 4510,
      "عمده": 4511,
      "مراحل": 4512,
      "##انگ": 4513,
      "جایگزین": 4514,
      "دک": 4515,
      "کشاور": 4516,
      "##ay": 4517,
      "لیگ": 4518,
      "کشتی": 4519,
      "دومین": 4520,
      "##نظر": 4521,
      "##ورک": 4522,
      "رعایت": 4523,
      "تکر": 4524,
      "رفع": 4525,
      "متصل": 4526,
      "دیر": 4527,
      "خبرگزاری": 4528,
      "اسرايیل": 4529,
      "رض": 4530,
      "نکنید": 4531,
      "برادر": 4532,
      "هنری": 4533,
      "مناسبی": 4534,
      "دانلود": 4535,
      "۲۱": 4536,
      "##کننده": 4537,
      "اجرایی": 4538,
      "داری": 4539,
      "بارد": 4540,
      "توجهی": 4541,
      "##کلی": 4542,
      "په": 4543,
      "ناب": 4544,
      "نوز": 4545,
      "چهره": 4546,
      "۱۳۸": 4547,
      "بای": 4548,
      "ایمنی": 4549,
      "توانیم": 4550,
      "واب": 4551,
      "لای": 4552,
      "ارشد": 4553,
      "طبیعت": 4554,
      "##رانی": 4555,
      "##کام": 4556,
      "پایت": 4557,
      "نیرو": 4558,
      "نقشه": 4559,
      "##ag": 4560,
      "طوری": 4561,
      "مذکور": 4562,
      "واس": 4563,
      "جشنواره": 4564,
      "##لند": 4565,
      "##ادث": 4566,
      "قض": 4567,
      "حقیقت": 4568,
      "##ادت": 4569,
      "##بیل": 4570,
      "همانند": 4571,
      "##ساز": 4572,
      "خودکار": 4573,
      "کنفر": 4574,
      "اوایل": 4575,
      "##اخر": 4576,
      "اطمین": 4577,
      "سک": 4578,
      "عش": 4579,
      "##سین": 4580,
      "##ماند": 4581,
      "خدمت": 4582,
      "هایش": 4583,
      "##ناک": 4584,
      "##عف": 4585,
      "ایالت": 4586,
      "روغن": 4587,
      "بتوانند": 4588,
      "قرمز": 4589,
      "##طرف": 4590,
      "الکتریک": 4591,
      "حداک": 4592,
      "قا": 4593,
      "گیم": 4594,
      "بلو": 4595,
      "اسف": 4596,
      "ادبی": 4597,
      "خبرنگ": 4598,
      "دارم": 4599,
      "##۵۰": 4600,
      "##یستی": 4601,
      "گذشت": 4602,
      "اطمینان": 4603,
      "نماینده": 4604,
      "##گاری": 4605,
      "نفتی": 4606,
      "فرست": 4607,
      "قانونی": 4608,
      "##نایی": 4609,
      "ماج": 4610,
      "##زل": 4611,
      "اروپ": 4612,
      "شهرداری": 4613,
      "پسر": 4614,
      "گروهی": 4615,
      "هوای": 4616,
      "ابع": 4617,
      "توزی": 4618,
      "سید": 4619,
      "جزيیات": 4620,
      "صوتی": 4621,
      "##oo": 4622,
      "راهن": 4623,
      "##نش": 4624,
      "##میل": 4625,
      "برتر": 4626,
      "رژیم": 4627,
      "افتاد": 4628,
      "ملل": 4629,
      "گوی": 4630,
      "عادی": 4631,
      "ارم": 4632,
      "##یکسلی": 4633,
      "عوامل": 4634,
      "##ow": 4635,
      "اقدامات": 4636,
      "قدم": 4637,
      "##ولد": 4638,
      "رساند": 4639,
      "سیل": 4640,
      "دس": 4641,
      "##وشن": 4642,
      "نوشتن": 4643,
      "خوا": 4644,
      "##لات": 4645,
      "مهاجر": 4646,
      "##یفه": 4647,
      "##ut": 4648,
      "مگاپیکسلی": 4649,
      "فراموش": 4650,
      "بپرداز": 4651,
      "##ارو": 4652,
      "##احیه": 4653,
      "##گرم": 4654,
      "##گفت": 4655,
      "اصط": 4656,
      "ماهه": 4657,
      "اعتراض": 4658,
      "##رهای": 4659,
      "بوک": 4660,
      "جنسی": 4661,
      "ورودی": 4662,
      "##شده": 4663,
      "درگذ": 4664,
      "خشک": 4665,
      "نزدیکی": 4666,
      "شیمی": 4667,
      "۱۹۶": 4668,
      "بهتری": 4669,
      "توزیع": 4670,
      "انداز": 4671,
      "انجمن": 4672,
      "شرق": 4673,
      "سراغ": 4674,
      "الله": 4675,
      "البوم": 4676,
      "نشانه": 4677,
      "محتوا": 4678,
      "شیشه": 4679,
      "اتصال": 4680,
      "کنفرانس": 4681,
      "##ماه": 4682,
      "قلم": 4683,
      "عکاسی": 4684,
      "تاز": 4685,
      "وسایل": 4686,
      "ناخ": 4687,
      "سازنده": 4688,
      "زم": 4689,
      "اواخر": 4690,
      "برنده": 4691,
      "نگهداری": 4692,
      "توانسته": 4693,
      "نتوان": 4694,
      "قلب": 4695,
      "همانطور": 4696,
      "تمرین": 4697,
      "هاست": 4698,
      "کلمه": 4699,
      "پیم": 4700,
      "دلایل": 4701,
      "چیپ": 4702,
      "درصدی": 4703,
      "تعط": 4704,
      "دیوار": 4705,
      "وظیفه": 4706,
      "رویداد": 4707,
      "مطل": 4708,
      "بهینه": 4709,
      "بم": 4710,
      "نموده": 4711,
      "دکمه": 4712,
      "لغ": 4713,
      "خانگی": 4714,
      "بص": 4715,
      "طبقه": 4716,
      "لوله": 4717,
      "۲۲": 4718,
      "نگرانی": 4719,
      "دانشجوی": 4720,
      "بگذارید": 4721,
      "دادگاه": 4722,
      "شیوع": 4723,
      "ریال": 4724,
      "معادل": 4725,
      "##لح": 4726,
      "##شیه": 4727,
      "سران": 4728,
      "##یته": 4729,
      "دفاع": 4730,
      "مهندسی": 4731,
      "پیچیده": 4732,
      "دقیقا": 4733,
      "جستجو": 4734,
      "##ur": 4735,
      "قطعات": 4736,
      "اژ": 4737,
      "##ارک": 4738,
      "دارو": 4739,
      "سنگین": 4740,
      "ایت": 4741,
      "صحنه": 4742,
      "##اقع": 4743,
      "میکرو": 4744,
      "##جام": 4745,
      "ارتفاع": 4746,
      "سع": 4747,
      "سنت": 4748,
      "چش": 4749,
      "اقامت": 4750,
      "نظارت": 4751,
      "ارزیابی": 4752,
      "اچ": 4753,
      "گری": 4754,
      "هیيت": 4755,
      "محققان": 4756,
      "##وح": 4757,
      "الکتریکی": 4758,
      "معمولی": 4759,
      "##ستر": 4760,
      "کیلو": 4761,
      "اختلاف": 4762,
      "کرب": 4763,
      "علم": 4764,
      "مون": 4765,
      "تحویل": 4766,
      "اعتبار": 4767,
      "کلیک": 4768,
      "##ورش": 4769,
      "اتم": 4770,
      "نمایید": 4771,
      "##نیک": 4772,
      "مواردی": 4773,
      "اذرب": 4774,
      "کاربردی": 4775,
      "##نجی": 4776,
      "ابعاد": 4777,
      "رادی": 4778,
      "مبارزه": 4779,
      "منتظر": 4780,
      "تي": 4781,
      "حاشیه": 4782,
      "حسین": 4783,
      "زا": 4784,
      "ایستگاه": 4785,
      "افس": 4786,
      "اذربایج": 4787,
      "دبیر": 4788,
      "کاب": 4789,
      "ابتدای": 4790,
      "متوسط": 4791,
      "ورزشی": 4792,
      "##راتور": 4793,
      "بورس": 4794,
      "مطمين": 4795,
      "##فل": 4796,
      "اسان": 4797,
      "##وذ": 4798,
      "فن": 4799,
      "سرباز": 4800,
      "بازیکن": 4801,
      "مبتلا": 4802,
      "برداشت": 4803,
      "افریق": 4804,
      "تدری": 4805,
      "تازگی": 4806,
      "بقیه": 4807,
      "ترکی": 4808,
      "##ارکت": 4809,
      "زنج": 4810,
      "مقاومت": 4811,
      "سالگی": 4812,
      "زندان": 4813,
      "گاه": 4814,
      "##باری": 4815,
      "##فاوتی": 4816,
      "دهندگان": 4817,
      "سابقه": 4818,
      "قه": 4819,
      "سابق": 4820,
      "خلاق": 4821,
      "قهرمان": 4822,
      "پنل": 4823,
      "##عم": 4824,
      "نوش": 4825,
      "صرفا": 4826,
      "الان": 4827,
      "##فانه": 4828,
      "۲۰۱۸": 4829,
      "پیشرفته": 4830,
      "##واری": 4831,
      "##ورده": 4832,
      "ناحیه": 4833,
      "حداکثر": 4834,
      "ساح": 4835,
      "باد": 4836,
      "قطعا": 4837,
      "جواب": 4838,
      "بالات": 4839,
      "خام": 4840,
      "پرونده": 4841,
      "##ویم": 4842,
      "رایانه": 4843,
      "اسپانی": 4844,
      "کارشناسان": 4845,
      "پرت": 4846,
      "مستقل": 4847,
      "##رض": 4848,
      "##20": 4849,
      "۲۳": 4850,
      "گام": 4851,
      "اخبار": 4852,
      "کمیسیون": 4853,
      "##نس": 4854,
      "##ir": 4855,
      "##يم": 4856,
      "گونا": 4857,
      "##دس": 4858,
      "مراق": 4859,
      "سفارش": 4860,
      "کور": 4861,
      "خیر": 4862,
      "19": 4863,
      "چقدر": 4864,
      "تقا": 4865,
      "بو": 4866,
      "##کاران": 4867,
      "##حات": 4868,
      "کنسول": 4869,
      "مزای": 4870,
      "تهدید": 4871,
      "استارتاپ": 4872,
      "واژه": 4873,
      "پیروزی": 4874,
      "ضروری": 4875,
      "ویدیو": 4876,
      "سالم": 4877,
      "اختصاصی": 4878,
      "##ویب": 4879,
      "مسيولیت": 4880,
      "روزی": 4881,
      "بافت": 4882,
      "کارکنان": 4883,
      "وکار": 4884,
      "##زن": 4885,
      "ترد": 4886,
      "کارخانه": 4887,
      "##بد": 4888,
      "۶۰": 4889,
      "بحران": 4890,
      "بیمارستان": 4891,
      "روستای": 4892,
      "ببینید": 4893,
      "کانال": 4894,
      "ایتال": 4895,
      "##جت": 4896,
      "دریایی": 4897,
      "##اژ": 4898,
      "##سک": 4899,
      "طلا": 4900,
      "##اشی": 4901,
      "درمانی": 4902,
      "دلاری": 4903,
      "تصویب": 4904,
      "##امون": 4905,
      "روبرو": 4906,
      "پردازش": 4907,
      "##وقف": 4908,
      "##خواه": 4909,
      "بدست": 4910,
      "St": 4911,
      "درس": 4912,
      "##خره": 4913,
      "سپت": 4914,
      "فرودگاه": 4915,
      "متوقف": 4916,
      "کانادا": 4917,
      "کنونی": 4918,
      "iOS": 4919,
      "##لیم": 4920,
      "نشد": 4921,
      "ممن": 4922,
      "اخیرا": 4923,
      "ماسک": 4924,
      "##رکتی": 4925,
      "خواندن": 4926,
      "اباد": 4927,
      "هواپیما": 4928,
      "فای": 4929,
      "اهن": 4930,
      "مصاح": 4931,
      "خواسته": 4932,
      "مسی": 4933,
      "خودشان": 4934,
      "سرخ": 4935,
      "ایتالیا": 4936,
      "جمهور": 4937,
      "کوین": 4938,
      "##ابله": 4939,
      "خلق": 4940,
      "۲۰۲۰": 4941,
      "مخاطب": 4942,
      "باب": 4943,
      "سپتامبر": 4944,
      "پور": 4945,
      "بنیان": 4946,
      "بخار": 4947,
      "نباشد": 4948,
      "##کنندگان": 4949,
      "سختی": 4950,
      "بشر": 4951,
      "##ادار": 4952,
      "مقابله": 4953,
      "##ia": 4954,
      "کشاورزی": 4955,
      "لر": 4956,
      "درگیر": 4957,
      "فضا": 4958,
      "##ذیر": 4959,
      "مذه": 4960,
      "چنان": 4961,
      "باره": 4962,
      "پیشین": 4963,
      "ایمیل": 4964,
      "جنس": 4965,
      "یخ": 4966,
      "نیوی": 4967,
      "##ایق": 4968,
      "اتمی": 4969,
      "مرغ": 4970,
      "نیازی": 4971,
      "مور": 4972,
      "میده": 4973,
      "عبدال": 4974,
      "مصاحبه": 4975,
      "میکند": 4976,
      "سرزمین": 4977,
      "اصطلاح": 4978,
      "جمعه": 4979,
      "استقل": 4980,
      "اسیا": 4981,
      "##عیف": 4982,
      "۲۰۱۷": 4983,
      "##کده": 4984,
      "گذارد": 4985,
      "##شای": 4986,
      "۲۰۱۶": 4987,
      "خروجی": 4988,
      "اعد": 4989,
      "متحد": 4990,
      "مطالب": 4991,
      "رهبری": 4992,
      "نمایندگان": 4993,
      "تراف": 4994,
      "قهوه": 4995,
      "انگل": 4996,
      "لند": 4997,
      "عنا": 4998,
      "عمی": 4999,
      "قلعه": 5000,
      "##لد": 5001,
      "حیوان": 5002,
      "میت": 5003,
      "دانند": 5004,
      "صاحب": 5005,
      "هماه": 5006,
      "خوردن": 5007,
      "تعوی": 5008,
      "استراتژی": 5009,
      "ناپ": 5010,
      "فرانس": 5011,
      "مشارکت": 5012,
      "مالک": 5013,
      "گم": 5014,
      "لم": 5015,
      "کشورها": 5016,
      "ژن": 5017,
      "متری": 5018,
      "اشک": 5019,
      "##اوری": 5020,
      "شویم": 5021,
      "خطوط": 5022,
      "هدایت": 5023,
      "استقلال": 5024,
      "of": 5025,
      "دون": 5026,
      "باری": 5027,
      "کمتری": 5028,
      "دین": 5029,
      "فیزیکی": 5030,
      "پلا": 5031,
      "سرور": 5032,
      "شف": 5033,
      "##عهد": 5034,
      "پیشرانه": 5035,
      "گوشت": 5036,
      "تلویزیونی": 5037,
      "اذربایجان": 5038,
      "عجیب": 5039,
      "ون": 5040,
      "نبرد": 5041,
      "زودی": 5042,
      "##ته": 5043,
      "##وج": 5044,
      "ربات": 5045,
      "نیویورک": 5046,
      "خالی": 5047,
      "نفس": 5048,
      "کمیته": 5049,
      "متاس": 5050,
      "مجوز": 5051,
      "اینتل": 5052,
      "قطعه": 5053,
      "معتبر": 5054,
      "##خیر": 5055,
      "تکرار": 5056,
      "پایتخت": 5057,
      "دانشمندان": 5058,
      "بزنید": 5059,
      "۵۰۰": 5060,
      "نمایند": 5061,
      "تض": 5062,
      "خورشید": 5063,
      "تخصصی": 5064,
      "تز": 5065,
      "رزول": 5066,
      "اکتبر": 5067,
      "##اتیک": 5068,
      "کمپ": 5069,
      "پان": 5070,
      "ازمون": 5071,
      "##قیب": 5072,
      "کشیده": 5073,
      "غذاهای": 5074,
      "##ریت": 5075,
      "نفوذ": 5076,
      "فارس": 5077,
      "برقرار": 5078,
      "مبلغ": 5079,
      "دعوت": 5080,
      "ایند": 5081,
      "جلوی": 5082,
      "##حیح": 5083,
      "پزشک": 5084,
      "##ation": 5085,
      "حفا": 5086,
      "حسن": 5087,
      "##ودگی": 5088,
      "لوازم": 5089,
      "نیک": 5090,
      "چطور": 5091,
      "قبلا": 5092,
      "دمای": 5093,
      "تعمیر": 5094,
      "قهرمانی": 5095,
      "۲۰۱۹": 5096,
      "##nt": 5097,
      "معمول": 5098,
      "پاید": 5099,
      "##im": 5100,
      "ریشه": 5101,
      "اینه": 5102,
      "مارس": 5103,
      "اوقات": 5104,
      "شغل": 5105,
      "نژ": 5106,
      "##لز": 5107,
      "شیا": 5108,
      "##اکی": 5109,
      "درام": 5110,
      "عربستان": 5111,
      "##وما": 5112,
      "مخالف": 5113,
      "##غه": 5114,
      "بردن": 5115,
      "پایگاه": 5116,
      "۲۷": 5117,
      "##مالی": 5118,
      "۲۸": 5119,
      "حکم": 5120,
      "هج": 5121,
      "بگوی": 5122,
      "##وپ": 5123,
      "اروپایی": 5124,
      "استقبال": 5125,
      "افزوده": 5126,
      "##زید": 5127,
      "خورش": 5128,
      "امام": 5129,
      "بازداشت": 5130,
      "کارمندان": 5131,
      "جزو": 5132,
      "رودخانه": 5133,
      "سند": 5134,
      "روزها": 5135,
      "رزولوشن": 5136,
      "هشد": 5137,
      "راننده": 5138,
      "المانی": 5139,
      "صلح": 5140,
      "مسجد": 5141,
      "مجاز": 5142,
      "توصیف": 5143,
      "قم": 5144,
      "دندان": 5145,
      "لنز": 5146,
      "متاسفانه": 5147,
      "سازد": 5148,
      "سرطان": 5149,
      "گرافیکی": 5150,
      "ظاهرا": 5151,
      "کاخ": 5152,
      "بیانیه": 5153,
      "##طی": 5154,
      "محور": 5155,
      "پشتی": 5156,
      "منص": 5157,
      "رانندگی": 5158,
      "##روت": 5159,
      "کرمان": 5160,
      "##ap": 5161,
      "وبس": 5162,
      "صفر": 5163,
      "##هی": 5164,
      "نظریه": 5165,
      "the": 5166,
      "سوریه": 5167,
      "الکترونیکی": 5168,
      "##یدنی": 5169,
      "تمایل": 5170,
      "نیازمند": 5171,
      "قبول": 5172,
      "سینما": 5173,
      "عشق": 5174,
      "تابستان": 5175,
      "##بوک": 5176,
      "متعلق": 5177,
      "خلی": 5178,
      "ادرس": 5179,
      "بوش": 5180,
      "لا": 5181,
      "میوه": 5182,
      "ریس": 5183,
      "صندوق": 5184,
      "##ورو": 5185,
      "سخنگ": 5186,
      "کارها": 5187,
      "مهاجرت": 5188,
      "نر": 5189,
      "حسگر": 5190,
      "##ایان": 5191,
      "تصویری": 5192,
      "۱۹۴": 5193,
      "ممنوع": 5194,
      "اوپ": 5195,
      "بتوانید": 5196,
      "نوک": 5197,
      "ابزارهای": 5198,
      "پیوست": 5199,
      "برمی": 5200,
      "بگیرند": 5201,
      "##يومی": 5202,
      "جرا": 5203,
      "##ازون": 5204,
      "رویک": 5205,
      "ویز": 5206,
      "مطالعات": 5207,
      "##od": 5208,
      "عاشق": 5209,
      "متعددی": 5210,
      "لطف": 5211,
      "صندلی": 5212,
      "عصر": 5213,
      "##ايی": 5214,
      "رویکرد": 5215,
      "رییس": 5216,
      "تخت": 5217,
      "حین": 5218,
      "##em": 5219,
      "مردان": 5220,
      "۲۶": 5221,
      "##زای": 5222,
      "وبسایت": 5223,
      "##ED": 5224,
      "##سای": 5225,
      "هیجان": 5226,
      "##ul": 5227,
      "دیدگاه": 5228,
      "بهداشتی": 5229,
      "چک": 5230,
      "شهروندان": 5231,
      "ترور": 5232,
      "##قای": 5233,
      "امیر": 5234,
      "حاوی": 5235,
      "مقصد": 5236,
      "گفتگو": 5237,
      "فون": 5238,
      "##ندر": 5239,
      "رکورد": 5240,
      "شگفت": 5241,
      "انداخت": 5242,
      "وابسته": 5243,
      "گرفتند": 5244,
      "برجسته": 5245,
      "نقاشی": 5246,
      "##یلات": 5247,
      "ضبط": 5248,
      "الگوریت": 5249,
      "هشدار": 5250,
      "مهمترین": 5251,
      "ادعا": 5252,
      "##os": 5253,
      "خواند": 5254,
      "خن": 5255,
      "شیايومی": 5256,
      "عربی": 5257,
      "مفهوم": 5258,
      "##ce": 5259,
      "انف": 5260,
      "امازون": 5261,
      "دانشجویان": 5262,
      "حملات": 5263,
      "انگلستان": 5264,
      "##تیک": 5265,
      "خب": 5266,
      "عوض": 5267,
      "کیلومتری": 5268,
      "##کتری": 5269,
      "صرفه": 5270,
      "ژانویه": 5271,
      "یافتن": 5272,
      "نسبتا": 5273,
      "هرگز": 5274,
      "صادرات": 5275,
      "تکمیل": 5276,
      "سرانجام": 5277,
      "##قاد": 5278,
      "##ومیت": 5279,
      "دف": 5280,
      "اصول": 5281,
      "نوزاد": 5282,
      "خروج": 5283,
      "ارتقا": 5284,
      "پذیری": 5285,
      "سالانه": 5286,
      "##ایتی": 5287,
      "##زیک": 5288,
      "برقی": 5289,
      "چار": 5290,
      "فیسبوک": 5291,
      "##پار": 5292,
      "جدیدترین": 5293,
      "رمان": 5294,
      "اژانس": 5295,
      "غل": 5296,
      "داند": 5297,
      "اگاه": 5298,
      "گن": 5299,
      "متولد": 5300,
      "##په": 5301,
      "ابتلا": 5302,
      "مساله": 5303,
      "جاذ": 5304,
      "##um": 5305,
      "ملا": 5306,
      "کارگردانی": 5307,
      "ماموریت": 5308,
      "تکنیک": 5309,
      "خل": 5310,
      "صاد": 5311,
      "نوامبر": 5312,
      "13": 5313,
      "فرانسوی": 5314,
      "دوشنبه": 5315,
      "خلاصه": 5316,
      "##ویس": 5317,
      "عرو": 5318,
      "کاغذ": 5319,
      "هرچه": 5320,
      "ارتباطی": 5321,
      "دوچ": 5322,
      "چپ": 5323,
      "تسه": 5324,
      "سخنگوی": 5325,
      "بیماران": 5326,
      "سالی": 5327,
      "سانتی": 5328,
      "خرا": 5329,
      "##لان": 5330,
      "ابان": 5331,
      "##شتی": 5332,
      "##برگ": 5333,
      "خورشیدی": 5334,
      "مرورگر": 5335,
      "ژوين": 5336,
      "محدوده": 5337,
      "بازیگر": 5338,
      "خس": 5339,
      "نگاهی": 5340,
      "##شو": 5341,
      "نشود": 5342,
      "برخلاف": 5343,
      "بارها": 5344,
      "راهکار": 5345,
      "۲۰۱۵": 5346,
      "پنجره": 5347,
      "ترافیک": 5348,
      "نگران": 5349,
      "##پرت": 5350,
      "##ژیک": 5351,
      "معرض": 5352,
      "میانگین": 5353,
      "شرح": 5354,
      "##وقی": 5355,
      "بروید": 5356,
      "دای": 5357,
      "انتقاد": 5358,
      "سنج": 5359,
      "نکات": 5360,
      "مری": 5361,
      "موقع": 5362,
      "فهم": 5363,
      "شرایطی": 5364,
      "رایج": 5365,
      "اتی": 5366,
      "شدم": 5367,
      "سور": 5368,
      "بدهد": 5369,
      "اوریل": 5370,
      "وای": 5371,
      "##راث": 5372,
      "##ess": 5373,
      "بودیم": 5374,
      "کلیدی": 5375,
      "جانبی": 5376,
      "مبنی": 5377,
      "ویدي": 5378,
      "کلیه": 5379,
      "##شتر": 5380,
      "مجله": 5381,
      "جاذبه": 5382,
      "اتومبیل": 5383,
      "تنظیمات": 5384,
      "استودی": 5385,
      "مجدد": 5386,
      "##روشیمی": 5387,
      "مسافر": 5388,
      "الگوریتم": 5389,
      "مشکلی": 5390,
      "##بیت": 5391,
      "مطابق": 5392,
      "خال": 5393,
      "##ویش": 5394,
      "بارداری": 5395,
      "##افت": 5396,
      "وعده": 5397,
      "بشکه": 5398,
      "احتمالی": 5399,
      "عزیز": 5400,
      "##افع": 5401,
      "ناس": 5402,
      "ضعیف": 5403,
      "نگار": 5404,
      "سلی": 5405,
      "کمبود": 5406,
      "مین": 5407,
      "قتل": 5408,
      "حفاظت": 5409,
      "##un": 5410,
      "چهارشنبه": 5411,
      "لیتر": 5412,
      "استرال": 5413,
      "##غیر": 5414,
      "میر": 5415,
      "درم": 5416,
      "تعامل": 5417,
      "شیمیایی": 5418,
      "قیمتی": 5419,
      "شفاف": 5420,
      "متفاوتی": 5421,
      "##اریس": 5422,
      "۳۰۰": 5423,
      "##وسته": 5424,
      "افتاده": 5425,
      "ساکن": 5426,
      "استرالیا": 5427,
      "امیز": 5428,
      "نبوده": 5429,
      "گردشگران": 5430,
      "سیر": 5431,
      "##عب": 5432,
      "رضایت": 5433,
      "حر": 5434,
      "مخاطبان": 5435,
      "##سیل": 5436,
      "جدول": 5437,
      "##ومه": 5438,
      "ارامش": 5439,
      "##انده": 5440,
      "واسطه": 5441,
      "فیلتر": 5442,
      "بدهید": 5443,
      "##کری": 5444,
      "##احت": 5445,
      "##زر": 5446,
      "پتروشیمی": 5447,
      "اگاهی": 5448,
      "درگذشت": 5449,
      "متقا": 5450,
      "ظاهری": 5451,
      "شهریور": 5452,
      "اولویت": 5453,
      "باکس": 5454,
      "بازسازی": 5455,
      "عرصه": 5456,
      "عمیق": 5457,
      "پالایش": 5458,
      "باستان": 5459,
      "ترجی": 5460,
      "استرس": 5461,
      "##گوی": 5462,
      "##50": 5463,
      "پرورش": 5464,
      "فد": 5465,
      "پادشاه": 5466,
      "شهرت": 5467,
      "وجه": 5468,
      "بومی": 5469,
      "صحیح": 5470,
      "سقف": 5471,
      "سقوط": 5472,
      "نامیده": 5473,
      "احمد": 5474,
      "حادث": 5475,
      "محیطی": 5476,
      "##oc": 5477,
      "سوز": 5478,
      "اندکی": 5479,
      "ویتامین": 5480,
      "دسامبر": 5481,
      "نظرات": 5482,
      "##لین": 5483,
      "ثروت": 5484,
      "##قیان": 5485,
      "هویت": 5486,
      "تبلیغاتی": 5487,
      "##حالی": 5488,
      "The": 5489,
      "۲۹": 5490,
      "سپاه": 5491,
      "جامع": 5492,
      "مقدم": 5493,
      "خبرنگار": 5494,
      "انب": 5495,
      "۰۰۰": 5496,
      "منزل": 5497,
      "کارایی": 5498,
      "درستی": 5499,
      "گرافیک": 5500,
      "نهاد": 5501,
      "طراح": 5502,
      "ببرید": 5503,
      "ردی": 5504,
      "##خار": 5505,
      "##املی": 5506,
      "جنگل": 5507,
      "##امله": 5508,
      "۸۰": 5509,
      "سیاره": 5510,
      "اوت": 5511,
      "طرفداران": 5512,
      "بازارهای": 5513,
      "محاس": 5514,
      "ترانه": 5515,
      "حادثه": 5516,
      "۱۳۵": 5517,
      "زمینی": 5518,
      "واکس": 5519,
      "متم": 5520,
      "سرک": 5521,
      "امتح": 5522,
      "کشید": 5523,
      "میگو": 5524,
      "کلمات": 5525,
      "زرد": 5526,
      "##بند": 5527,
      "پاکستان": 5528,
      "##بخت": 5529,
      "اشنایی": 5530,
      "##ایلی": 5531,
      "فرار": 5532,
      "##راسیون": 5533,
      "۹۰": 5534,
      "اندرویدی": 5535,
      "لندن": 5536,
      "##غم": 5537,
      "پورت": 5538,
      "موج": 5539,
      "نجات": 5540,
      "##حت": 5541,
      "هید": 5542,
      "ادبیات": 5543,
      "دانشکده": 5544,
      "تماشا": 5545,
      "ترکیبی": 5546,
      "میراث": 5547,
      "هرک": 5548,
      "دشوار": 5549,
      "##اهیم": 5550,
      "علايم": 5551,
      "##ادها": 5552,
      "12": 5553,
      "محله": 5554,
      "نیازهای": 5555,
      "حقوقی": 5556,
      "تصاد": 5557,
      "سلط": 5558,
      "وار": 5559,
      "کتابخانه": 5560,
      "##راری": 5561,
      "افتد": 5562,
      "##راس": 5563,
      "دامنه": 5564,
      "گوشه": 5565,
      "##ab": 5566,
      "اعتقاد": 5567,
      "##غلی": 5568,
      "جور": 5569,
      "بلی": 5570,
      "مرس": 5571,
      "۳۲": 5572,
      "اوردن": 5573,
      "بساز": 5574,
      "عد": 5575,
      "##اتور": 5576,
      "بازه": 5577,
      "##برداری": 5578,
      "##زام": 5579,
      "معنا": 5580,
      "ساختن": 5581,
      "فریم": 5582,
      "امضا": 5583,
      "سادگی": 5584,
      "پیگیری": 5585,
      "فش": 5586,
      "##وتو": 5587,
      "انتی": 5588,
      "جعبه": 5589,
      "تولیدی": 5590,
      "AM": 5591,
      "پیوند": 5592,
      "مسکن": 5593,
      "محاسبه": 5594,
      "ضربه": 5595,
      "پرتاب": 5596,
      "اسفند": 5597,
      "جس": 5598,
      "نوار": 5599,
      "دهم": 5600,
      "مسافران": 5601,
      "دوچرخه": 5602,
      "چراغ": 5603,
      "کنی": 5604,
      "گوناگون": 5605,
      "نژاد": 5606,
      "تنهایی": 5607,
      "زندانی": 5608,
      "##فیف": 5609,
      "بیند": 5610,
      "تال": 5611,
      "قبیل": 5612,
      "تخم": 5613,
      "مانع": 5614,
      "اسید": 5615,
      "اضطر": 5616,
      "چای": 5617,
      "بخوان": 5618,
      "امتحان": 5619,
      "مسلمان": 5620,
      "دهی": 5621,
      "حدی": 5622,
      "راستای": 5623,
      "رح": 5624,
      "پدیده": 5625,
      "دریاچه": 5626,
      "پذیرش": 5627,
      "انگیزه": 5628,
      "##گا": 5629,
      "ادع": 5630,
      "پنجم": 5631,
      "کج": 5632,
      "له": 5633,
      "معامله": 5634,
      "۱۹۳": 5635,
      "ترجیح": 5636,
      "چربی": 5637,
      "ریاضی": 5638,
      "پرده": 5639,
      "فاز": 5640,
      "جرم": 5641,
      "استخدام": 5642,
      "نده": 5643,
      "شاخه": 5644,
      "الودگی": 5645,
      "توق": 5646,
      "##ip": 5647,
      "اتوب": 5648,
      "بهمن": 5649,
      "فوریه": 5650,
      "کلاسی": 5651,
      "مذهبی": 5652,
      "محافظت": 5653,
      "ایپد": 5654,
      "دارایی": 5655,
      "شلو": 5656,
      "بمب": 5657,
      "##غذیه": 5658,
      "محکوم": 5659,
      "ژاپنی": 5660,
      "۱۹۵": 5661,
      "حیات": 5662,
      "##زیدنت": 5663,
      "روانه": 5664,
      "اینچ": 5665,
      "زنی": 5666,
      "درن": 5667,
      "##av": 5668,
      "پیرامون": 5669,
      "سلامتی": 5670,
      "۷۰": 5671,
      "##فس": 5672,
      "پرزیدنت": 5673,
      "سالن": 5674,
      "برطرف": 5675,
      "##ers": 5676,
      "جنب": 5677,
      "##راگون": 5678,
      "میزبان": 5679,
      "##دایی": 5680,
      "ویديو": 5681,
      "Pro": 5682,
      "الم": 5683,
      "ابری": 5684,
      "##مندی": 5685,
      "اختلال": 5686,
      "بازر": 5687,
      "رضا": 5688,
      "خوانده": 5689,
      "##الد": 5690,
      "شباه": 5691,
      "فلسط": 5692,
      "متنوع": 5693,
      "کات": 5694,
      "##op": 5695,
      "کابل": 5696,
      "انح": 5697,
      "تغذیه": 5698,
      "جستجوی": 5699,
      "روایت": 5700,
      "خاور": 5701,
      "بنزین": 5702,
      "گجت": 5703,
      "اسنپد": 5704,
      "انع": 5705,
      "بانکی": 5706,
      "تعویض": 5707,
      "متهم": 5708,
      "انفج": 5709,
      "پاریس": 5710,
      "US": 5711,
      "مصر": 5712,
      "سینمایی": 5713,
      "عادت": 5714,
      "گذاران": 5715,
      "پلاست": 5716,
      "وات": 5717,
      "بشه": 5718,
      "##ساخت": 5719,
      "۲۰۱۴": 5720,
      "معامل": 5721,
      "فراورده": 5722,
      "شیرین": 5723,
      "روحانی": 5724,
      "رنگی": 5725,
      "##جع": 5726,
      "پرچمدار": 5727,
      "غر": 5728,
      "اخلا": 5729,
      "نوری": 5730,
      "##یسی": 5731,
      "کرو": 5732,
      "کوال": 5733,
      "ماز": 5734,
      "ضعف": 5735,
      "تماشای": 5736,
      "روستایی": 5737,
      "تاج": 5738,
      "تنوع": 5739,
      "خلاف": 5740,
      "##بل": 5741,
      "اسنپدراگون": 5742,
      "##ثی": 5743,
      "صفحات": 5744,
      "اسپانیا": 5745,
      "##and": 5746,
      "امدن": 5747,
      "خرداد": 5748,
      "لیت": 5749,
      "خم": 5750,
      "اتهام": 5751,
      "اینج": 5752,
      "رقیب": 5753,
      "۹۹": 5754,
      "غول": 5755,
      "خواستار": 5756,
      "حیوانات": 5757,
      "##ینت": 5758,
      "##رها": 5759,
      "واش": 5760,
      "##او": 5761,
      "۱۳۷": 5762,
      "ذه": 5763,
      "##یدگی": 5764,
      "بوی": 5765,
      "کالی": 5766,
      "دیجیاتو": 5767,
      "روم": 5768,
      "تولد": 5769,
      "##۶۰": 5770,
      "مشاوره": 5771,
      "بعدها": 5772,
      "حلقه": 5773,
      "موشک": 5774,
      "شایعات": 5775,
      "بهار": 5776,
      "نقد": 5777,
      "شوروی": 5778,
      "##یکه": 5779,
      "کروم": 5780,
      "نوس": 5781,
      "برود": 5782,
      "سم": 5783,
      "##خان": 5784,
      "بید": 5785,
      "مذاکره": 5786,
      "مزایای": 5787,
      "هدفون": 5788,
      "پیمان": 5789,
      "۳۵": 5790,
      "غیرق": 5791,
      "HD": 5792,
      "پرداخته": 5793,
      "پروتيین": 5794,
      "مراقبت": 5795,
      "سوي": 5796,
      "پنه": 5797,
      "200": 5798,
      "جر": 5799,
      "##ort": 5800,
      "جغ": 5801,
      "اردی": 5802,
      "ابراز": 5803,
      "اقیان": 5804,
      "نادر": 5805,
      "بت": 5806,
      "اسمان": 5807,
      "دیت": 5808,
      "بنیاد": 5809,
      "۳۱": 5810,
      "##انش": 5811,
      "##برت": 5812,
      "توییتر": 5813,
      "شغلی": 5814,
      "کت": 5815,
      "توپ": 5816,
      "##جوان": 5817,
      "##ایف": 5818,
      "فراوانی": 5819,
      "##ستری": 5820,
      "##سری": 5821,
      "میرز": 5822,
      "خلیج": 5823,
      "۴۰۰": 5824,
      "دانید": 5825,
      "##زاده": 5826,
      "دشمن": 5827,
      "اشپ": 5828,
      "لز": 5829,
      "##نشین": 5830,
      "##فاقی": 5831,
      "پیشگیری": 5832,
      "فارغ": 5833,
      "جداگانه": 5834,
      "فرش": 5835,
      "اپراتور": 5836,
      "##ate": 5837,
      "متعدد": 5838,
      "ریسک": 5839,
      "جراحی": 5840,
      "نیا": 5841,
      "جاب": 5842,
      "##بهشت": 5843,
      "##عود": 5844,
      "داي": 5845,
      "وقوع": 5846,
      "##وکس": 5847,
      "همگی": 5848,
      "نامزد": 5849,
      "خواننده": 5850,
      "دستیابی": 5851,
      "سوالات": 5852,
      "امروزی": 5853,
      "تمیز": 5854,
      "کارشناسی": 5855,
      "داشتم": 5856,
      "اتفاقی": 5857,
      "بندر": 5858,
      "فری": 5859,
      "##ادن": 5860,
      "شعر": 5861,
      "بصورت": 5862,
      "جنبه": 5863,
      "زخ": 5864,
      "متغیر": 5865,
      "گیاهان": 5866,
      "المپ": 5867,
      "اردیبهشت": 5868,
      "سخنرانی": 5869,
      "##علی": 5870,
      "فراوان": 5871,
      "تنگ": 5872,
      "##ore": 5873,
      "فس": 5874,
      "یکشنبه": 5875,
      "ایمنا": 5876,
      "پدرش": 5877,
      "اسل": 5878,
      "دخ": 5879,
      "برایتان": 5880,
      "##بول": 5881,
      "تاخیر": 5882,
      "کارگردان": 5883,
      "گیت": 5884,
      "روزرسانی": 5885,
      "مزیت": 5886,
      "رها": 5887,
      "تند": 5888,
      "دره": 5889,
      "خشون": 5890,
      "شنیده": 5891,
      "شباهت": 5892,
      "دستیار": 5893,
      "انتهای": 5894,
      "مرداد": 5895,
      "Re": 5896,
      "ایشان": 5897,
      "مذاکرات": 5898,
      "افزارهای": 5899,
      "خوشبخت": 5900,
      "تجربی": 5901,
      "##گره": 5902,
      "پرسش": 5903,
      "قربانی": 5904,
      "درگیری": 5905,
      "رهبران": 5906,
      "غذای": 5907,
      "نماد": 5908,
      "سد": 5909,
      "باند": 5910,
      "یورو": 5911,
      "مید": 5912,
      "کشوری": 5913,
      "##لفی": 5914,
      "نوکیا": 5915,
      "##ive": 5916,
      "کشد": 5917,
      "کاراف": 5918,
      "سرپر": 5919,
      "ارا": 5920,
      "روزه": 5921,
      "عده": 5922,
      "گیل": 5923,
      "میکرد": 5924,
      "شکلی": 5925,
      "سومین": 5926,
      "##منستان": 5927,
      "برقراری": 5928,
      "##ارا": 5929,
      "پیشتر": 5930,
      "الف": 5931,
      "##ینا": 5932,
      "منطقی": 5933,
      "تعبیه": 5934,
      "##وام": 5935,
      "ابتدایی": 5936,
      "##مانه": 5937,
      "شبه": 5938,
      "یهودی": 5939,
      "تفکر": 5940,
      "عوار": 5941,
      "حاکم": 5942,
      "تشوی": 5943,
      "انیم": 5944,
      "خورده": 5945,
      "طرفی": 5946,
      "موسوم": 5947,
      "خشونت": 5948,
      "احساسات": 5949,
      "اداری": 5950,
      "همون": 5951,
      "بکار": 5952,
      "افتت": 5953,
      "ملت": 5954,
      "ستاد": 5955,
      "سلاح": 5956,
      "منحصر": 5957,
      "جبر": 5958,
      "قول": 5959,
      "##وردین": 5960,
      "ایس": 5961,
      "زیرساخت": 5962,
      "درب": 5963,
      "کنون": 5964,
      "مالیات": 5965,
      "عملیاتی": 5966,
      "پناه": 5967,
      "ساحل": 5968,
      "کربن": 5969,
      "##انا": 5970,
      "##پرس": 5971,
      "کلاسیک": 5972,
      "فرزندان": 5973,
      "##ne": 5974,
      "موسس": 5975,
      "شانا": 5976,
      "هیدرو": 5977,
      "چراکه": 5978,
      "مدرک": 5979,
      "جیم": 5980,
      "پاپ": 5981,
      "مدعی": 5982,
      "بزرگتر": 5983,
      "جوش": 5984,
      "گفتم": 5985,
      "ناد": 5986,
      "ویرایش": 5987,
      "درگاه": 5988,
      "واکسن": 5989,
      "مربی": 5990,
      "بستگی": 5991,
      "دریای": 5992,
      "غنی": 5993,
      "##ak": 5994,
      "زمستان": 5995,
      "کاف": 5996,
      "فرک": 5997,
      "##نیا": 5998,
      "تحول": 5999,
      "##ابری": 6000,
      "تصریح": 6001,
      "هزاران": 6002,
      "درحالی": 6003,
      "ماژ": 6004,
      "صدور": 6005,
      "رنج": 6006,
      "حج": 6007,
      "اتوبوس": 6008,
      "لغو": 6009,
      "ندارید": 6010,
      "نگ": 6011,
      "##رفه": 6012,
      "کلاه": 6013,
      "عصبی": 6014,
      "##ارهای": 6015,
      "مایع": 6016,
      "محصولی": 6017,
      "هرگونه": 6018,
      "##ردگی": 6019,
      "##باب": 6020,
      "مستند": 6021,
      "فروردین": 6022,
      "تعهد": 6023,
      "فال": 6024,
      "اورند": 6025,
      "##کم": 6026,
      "والدین": 6027,
      "هدیه": 6028,
      "نواوری": 6029,
      "مرات": 6030,
      "یکپار": 6031,
      "##داث": 6032,
      "جوی": 6033,
      "انقدر": 6034,
      "مخاب": 6035,
      "احتر": 6036,
      "پری": 6037,
      "##غام": 6038,
      "استی": 6039,
      "گال": 6040,
      "ارایه": 6041,
      "بگوییم": 6042,
      "عمق": 6043,
      "هایشان": 6044,
      "ماهواره": 6045,
      "ژويیه": 6046,
      "بلیط": 6047,
      "مسيولان": 6048,
      "##per": 6049,
      "شاد": 6050,
      "بالاترین": 6051,
      "##ایم": 6052,
      "فراتر": 6053,
      "شاع": 6054,
      "برساند": 6055,
      "میانه": 6056,
      "کوش": 6057,
      "یو": 6058,
      "##ستم": 6059,
      "حساس": 6060,
      "عباس": 6061,
      "دانیم": 6062,
      "احداث": 6063,
      "پارچه": 6064,
      "کفش": 6065,
      "بگذارد": 6066,
      "کارکرد": 6067,
      "مهمان": 6068,
      "خراسان": 6069,
      "تسلا": 6070,
      "##ورا": 6071,
      "ملاقات": 6072,
      "روبه": 6073,
      "متمرکز": 6074,
      "##ack": 6075,
      "مخفی": 6076,
      "گش": 6077,
      "بگذار": 6078,
      "کجا": 6079,
      "تخفیف": 6080,
      "وظایف": 6081,
      "اتمام": 6082,
      "##وکر": 6083,
      "کوالکام": 6084,
      "اسناد": 6085,
      "##۲۱": 6086,
      "کنگره": 6087,
      "منع": 6088,
      "تبریز": 6089,
      "##زیه": 6090,
      "##راحت": 6091,
      "۶۴": 6092,
      "مشکلاتی": 6093,
      "استیشن": 6094,
      "دیز": 6095,
      "قطر": 6096,
      "جری": 6097,
      "USB": 6098,
      "هیات": 6099,
      "خاموش": 6100,
      "نواز": 6101,
      "##انو": 6102,
      "همس": 6103,
      "خنک": 6104,
      "اکسید": 6105,
      "بغ": 6106,
      "کوچکی": 6107,
      "المپیک": 6108,
      "##ie": 6109,
      "ضخ": 6110,
      "##اما": 6111,
      "امو": 6112,
      "چوب": 6113,
      "فرمانده": 6114,
      "پژوهشگران": 6115,
      "##ارف": 6116,
      "کاپ": 6117,
      "بازیکنان": 6118,
      "##شاهی": 6119,
      "مشهد": 6120,
      "برگرد": 6121,
      "##if": 6122,
      "##ونت": 6123,
      "پایدار": 6124,
      "گزارشی": 6125,
      "مدا": 6126,
      "شتاب": 6127,
      "##pp": 6128,
      "امپرات": 6129,
      "شنا": 6130,
      "فلزی": 6131,
      "طیف": 6132,
      "کردید": 6133,
      "محبوبیت": 6134,
      "اموزان": 6135,
      "واحدهای": 6136,
      "ازای": 6137,
      "داغ": 6138,
      "باکتری": 6139,
      "طعم": 6140,
      "سوار": 6141,
      "##البی": 6142,
      "میتون": 6143,
      "کیلوگرم": 6144,
      "##وایی": 6145,
      "میکنه": 6146,
      "in": 6147,
      "نرس": 6148,
      "ناگه": 6149,
      "تلگرام": 6150,
      "هماهنگی": 6151,
      "متقاضی": 6152,
      "دیدنی": 6153,
      "تشویق": 6154,
      "خودمان": 6155,
      "هستم": 6156,
      "##تم": 6157,
      "اوج": 6158,
      "بابت": 6159,
      "کشی": 6160,
      "واردات": 6161,
      "فدراسیون": 6162,
      "شانس": 6163,
      "ناز": 6164,
      "##ارات": 6165,
      "سرم": 6166,
      "۲۰۱۲": 6167,
      "نوجوان": 6168,
      "##ولت": 6169,
      "استخراج": 6170,
      "ماد": 6171,
      "انجایی": 6172,
      "تحقیقاتی": 6173,
      "and": 6174,
      "غیره": 6175,
      "هور": 6176,
      "برگشت": 6177,
      "##خورد": 6178,
      "زنگ": 6179,
      "اشیا": 6180,
      "ماجرا": 6181,
      "طلایی": 6182,
      "الکترونیک": 6183,
      "مربع": 6184,
      "##پت": 6185,
      "محمود": 6186,
      "معاملات": 6187,
      "بیل": 6188,
      "عوارض": 6189,
      "مجد": 6190,
      "خریداران": 6191,
      "##est": 6192,
      "##ity": 6193,
      "##بای": 6194,
      "الهام": 6195,
      "کافه": 6196,
      "##ra": 6197,
      "خودروساز": 6198,
      "بالاخره": 6199,
      "اوپک": 6200,
      "سيو": 6201,
      "##الیایی": 6202,
      "غیرم": 6203,
      "##گونگی": 6204,
      "##بورگ": 6205,
      "تضمین": 6206,
      "##لاگ": 6207,
      "اهالی": 6208,
      "وسط": 6209,
      "سیب": 6210,
      "مطب": 6211,
      "شیراز": 6212,
      "##میه": 6213,
      "زاویه": 6214,
      "ستون": 6215,
      "وین": 6216,
      "سواری": 6217,
      "##ظم": 6218,
      "##art": 6219,
      "سده": 6220,
      "##دل": 6221,
      "چگونگی": 6222,
      "دانم": 6223,
      "۲۰۱۳": 6224,
      "Ch": 6225,
      "وضع": 6226,
      "##سن": 6227,
      "فعلا": 6228,
      "کودکی": 6229,
      "عفون": 6230,
      "خودروها": 6231,
      "جوانان": 6232,
      "پردازد": 6233,
      "همراهی": 6234,
      "تحصیلی": 6235,
      "جلس": 6236,
      "پنهان": 6237,
      "HT": 6238,
      "روانی": 6239,
      "ویل": 6240,
      "۴۵": 6241,
      "##میانه": 6242,
      "مدارس": 6243,
      "شرکتی": 6244,
      "موضوعات": 6245,
      "##ابتی": 6246,
      "همکاران": 6247,
      "ناسا": 6248,
      "چندانی": 6249,
      "انفجار": 6250,
      "یادداشت": 6251,
      "تحمل": 6252,
      "۱۹۱": 6253,
      "پرف": 6254,
      "تولیدکنندگان": 6255,
      "جنبش": 6256,
      "قی": 6257,
      "پد": 6258,
      "ضرب": 6259,
      "باستانی": 6260,
      "پایانی": 6261,
      "دیپل": 6262,
      "بیاید": 6263,
      "کمترین": 6264,
      "پنجشنبه": 6265,
      "ایفا": 6266,
      "##10": 6267,
      "گنج": 6268,
      "##لیلی": 6269,
      "فیزیک": 6270,
      "رسیدگی": 6271,
      "In": 6272,
      "عفونت": 6273,
      "قلبی": 6274,
      "خاورمیانه": 6275,
      "وف": 6276,
      "تابع": 6277,
      "##80": 6278,
      "زودتر": 6279,
      "اسکن": 6280,
      "لوکس": 6281,
      "عمد": 6282,
      "اذر": 6283,
      "to": 6284,
      "توقف": 6285,
      "تجزیه": 6286,
      "##مره": 6287,
      "اتفاقات": 6288,
      "اثبات": 6289,
      "##یزه": 6290,
      "انگلیس": 6291,
      "شست": 6292,
      "عناصر": 6293,
      "میکنم": 6294,
      "فین": 6295,
      "فرکانس": 6296,
      "بستر": 6297,
      "امپراتوری": 6298,
      "دنده": 6299,
      "##عهده": 6300,
      "سوپ": 6301,
      "هدست": 6302,
      "قفل": 6303,
      "معیار": 6304,
      "##قب": 6305,
      "چیپست": 6306,
      "زنجیره": 6307,
      "##صاب": 6308,
      "بیاور": 6309,
      "سازمانی": 6310,
      "میکنند": 6311,
      "تخریب": 6312,
      "30": 6313,
      "100": 6314,
      "15": 6315,
      "فروشی": 6316,
      "مندان": 6317,
      "##og": 6318,
      "##ونگ": 6319,
      "بازگرد": 6320,
      "کشیدن": 6321,
      "گرچه": 6322,
      "##۳۰": 6323,
      "اخذ": 6324,
      "##اهایی": 6325,
      "##ایب": 6326,
      "کارهایی": 6327,
      "##کران": 6328,
      "دانه": 6329,
      "نمک": 6330,
      "برسان": 6331,
      "جغرافی": 6332,
      "پولی": 6333,
      "##ریا": 6334,
      "اقیانوس": 6335,
      "استخوان": 6336,
      "معتقدند": 6337,
      "##اصر": 6338,
      "احترام": 6339,
      "سعودی": 6340,
      "میرزا": 6341,
      "یکم": 6342,
      "##ob": 6343,
      "##ضاع": 6344,
      "موش": 6345,
      "کول": 6346,
      "تياتر": 6347,
      "ملک": 6348,
      "کلم": 6349,
      "گز": 6350,
      "##گرمی": 6351,
      "مطلوب": 6352,
      "عظیم": 6353,
      "##۸۰": 6354,
      "بکن": 6355,
      "قز": 6356,
      "سلفی": 6357,
      "یکسان": 6358,
      "بخواهید": 6359,
      "افریقا": 6360,
      "فلسفه": 6361,
      "مواقع": 6362,
      "برز": 6363,
      "شکایت": 6364,
      "مجددا": 6365,
      "درج": 6366,
      "احم": 6367,
      "سبزی": 6368,
      "واچ": 6369,
      "وام": 6370,
      "##ازده": 6371,
      "دما": 6372,
      "۲۰۱۰": 6373,
      "اسنپ": 6374,
      "##یاری": 6375,
      "موقت": 6376,
      "سطوح": 6377,
      "جمعی": 6378,
      "۱۳۴": 6379,
      "متناسب": 6380,
      "##رکات": 6381,
      "فرمول": 6382,
      "کپی": 6383,
      "##اتون": 6384,
      "گفتنی": 6385,
      "ارزشمند": 6386,
      "##بتی": 6387,
      "فاک": 6388,
      "بازرگانی": 6389,
      "امریکای": 6390,
      "اکث": 6391,
      "ماژول": 6392,
      "سیگن": 6393,
      "نشین": 6394,
      "کارگران": 6395,
      "اپد": 6396,
      "##ریش": 6397,
      "هواپیمایی": 6398,
      "ویدیویی": 6399,
      "بمان": 6400,
      "##یدم": 6401,
      "##چسب": 6402,
      "استن": 6403,
      "کالیفر": 6404,
      "##وشی": 6405,
      "فلز": 6406,
      "##all": 6407,
      "بالغ": 6408,
      "میلاد": 6409,
      "خطرناک": 6410,
      "حساسی": 6411,
      "##ارن": 6412,
      "منتق": 6413,
      "##کتور": 6414,
      "مجت": 6415,
      "##اهد": 6416,
      "مقاوم": 6417,
      "درواقع": 6418,
      "متخصصان": 6419,
      "خیال": 6420,
      "ششم": 6421,
      "تپه": 6422,
      "بایست": 6423,
      "۲۰۱۱": 6424,
      "شیخ": 6425,
      "مایل": 6426,
      "واض": 6427,
      "فیلمی": 6428,
      "مهدی": 6429,
      "##ear": 6430,
      "مقی": 6431,
      "##زم": 6432,
      "مخالفت": 6433,
      "##یرد": 6434,
      "دود": 6435,
      "افتتاح": 6436,
      "##گم": 6437,
      "استور": 6438,
      "تحصیلات": 6439,
      "راهنمایی": 6440,
      "انگار": 6441,
      "هنرمند": 6442,
      "قدیم": 6443,
      "گذاشتن": 6444,
      "##ینو": 6445,
      "استع": 6446,
      "احتی": 6447,
      "توانستند": 6448,
      "ایز": 6449,
      "کوتاهی": 6450,
      "عموم": 6451,
      "استراحت": 6452,
      "##ge": 6453,
      "خوشحال": 6454,
      "زای": 6455,
      "افکار": 6456,
      "لبه": 6457,
      "کیب": 6458,
      "تدوین": 6459,
      "گیاهی": 6460,
      "جلسات": 6461,
      "##بو": 6462,
      "کالاهای": 6463,
      "مواف": 6464,
      "##ont": 6465,
      "برعهده": 6466,
      "کووید": 6467,
      "مارک": 6468,
      "ارمنستان": 6469,
      "##کول": 6470,
      "اجاره": 6471,
      "بری": 6472,
      "مداوم": 6473,
      "موافقت": 6474,
      "اوضاع": 6475,
      "سوء": 6476,
      "جبران": 6477,
      "ساعتی": 6478,
      "##ect": 6479,
      "سینه": 6480,
      "سربازان": 6481,
      "صدر": 6482,
      "فلسطینی": 6483,
      "##سکو": 6484,
      "##ولیس": 6485,
      "خودداری": 6486,
      "دستاورد": 6487,
      "اپدیت": 6488,
      "##چوب": 6489,
      "طلب": 6490,
      "11": 6491,
      "۱۳۶": 6492,
      "طرز": 6493,
      "تیره": 6494,
      "##وردی": 6495,
      "##وتا": 6496,
      "چسب": 6497,
      "##igh": 6498,
      "پادشاهی": 6499,
      "نقص": 6500,
      "چندی": 6501,
      "##اقد": 6502,
      "##نگتن": 6503,
      "گفتن": 6504,
      "بروزرسانی": 6505,
      "##ri": 6506,
      "تخمین": 6507,
      "چرخه": 6508,
      "ببرد": 6509,
      "##غد": 6510,
      "##فاعی": 6511,
      "##لر": 6512,
      "تدریس": 6513,
      "اشغال": 6514,
      "مدارک": 6515,
      "نمایندگی": 6516,
      "تاثیرگذار": 6517,
      "محاسب": 6518,
      "تقاضا": 6519,
      "##راتی": 6520,
      "##ضل": 6521,
      "##اسیون": 6522,
      "قضایی": 6523,
      "یکپارچه": 6524,
      "عسل": 6525,
      "بلاک": 6526,
      "##ترا": 6527,
      "مخلو": 6528,
      "راستا": 6529,
      "سیگنال": 6530,
      "فعالان": 6531,
      "کامپ": 6532,
      "##60": 6533,
      "ازمایشی": 6534,
      "خسته": 6535,
      "انبوه": 6536,
      "ذهنی": 6537,
      "رف": 6538,
      "حرارت": 6539,
      "قطعی": 6540,
      "معد": 6541,
      "##الم": 6542,
      "کیس": 6543,
      "فاکتور": 6544,
      "الگو": 6545,
      "##ec": 6546,
      "طال": 6547,
      "مراتب": 6548,
      "درای": 6549,
      "درحال": 6550,
      "خش": 6551,
      "پارل": 6552,
      "##ver": 6553,
      "شکار": 6554,
      "دستگیر": 6555,
      "شهید": 6556,
      "موضوعی": 6557,
      "لبنان": 6558,
      "واشنگتن": 6559,
      "عمدتا": 6560,
      "اسپیک": 6561,
      "امادگی": 6562,
      "خواص": 6563,
      "هنرمندان": 6564,
      "اضافی": 6565,
      "روشی": 6566,
      "Sp": 6567,
      "فاقد": 6568,
      "ورد": 6569,
      "مود": 6570,
      "نات": 6571,
      "روزمره": 6572,
      "هل": 6573,
      "##وبه": 6574,
      "فاش": 6575,
      "دموکر": 6576,
      "تغییراتی": 6577,
      "##ex": 6578,
      "سایه": 6579,
      "بماند": 6580,
      "ازار": 6581,
      "##سیر": 6582,
      "افتاب": 6583,
      "##فای": 6584,
      "براورد": 6585,
      "جویی": 6586,
      "سازندگان": 6587,
      "بهش": 6588,
      "مستقر": 6589,
      "پهل": 6590,
      "فکری": 6591,
      "گیگابایتی": 6592,
      "##ظاه": 6593,
      "نوشیدنی": 6594,
      "لیز": 6595,
      "کمپین": 6596,
      "##اتل": 6597,
      "مقالات": 6598,
      "##زایی": 6599,
      "تکه": 6600,
      "اشکار": 6601,
      "تزریق": 6602,
      "شبانه": 6603,
      "##ایز": 6604,
      "هجری": 6605,
      "##گاهرت": 6606,
      "کریست": 6607,
      "مقررات": 6608,
      "پروف": 6609,
      "بعدا": 6610,
      "پرنده": 6611,
      "دروازه": 6612,
      "مقیاس": 6613,
      "##بک": 6614,
      "دراز": 6615,
      "تاکسی": 6616,
      "ذرات": 6617,
      "جلوه": 6618,
      "۲۰۰۸": 6619,
      "برنج": 6620,
      "مشا": 6621,
      "##قیقی": 6622,
      "خوشبختانه": 6623,
      "دهان": 6624,
      "عقیده": 6625,
      "رغم": 6626,
      "ببینیم": 6627,
      "عضویت": 6628,
      "تجدید": 6629,
      "##پس": 6630,
      "تدا": 6631,
      "خلاقیت": 6632,
      "##خوان": 6633,
      "شرط": 6634,
      "بازنش": 6635,
      "دوگانه": 6636,
      "##ضه": 6637,
      "##ard": 6638,
      "مینی": 6639,
      "قاره": 6640,
      "جک": 6641,
      "حاکی": 6642,
      "انبار": 6643,
      "باشم": 6644,
      "مسلح": 6645,
      "پروتکل": 6646,
      "##عمل": 6647,
      "##جایی": 6648,
      "##چال": 6649,
      "دلخواه": 6650,
      "۹۸": 6651,
      "مبنای": 6652,
      "جذابیت": 6653,
      "جنین": 6654,
      "##ودر": 6655,
      "کنن": 6656,
      "##پذیر": 6657,
      "افتخار": 6658,
      "تولیدکننده": 6659,
      "استر": 6660,
      "اسکار": 6661,
      "بینید": 6662,
      "ایرانیان": 6663,
      "زیبای": 6664,
      "مطبوع": 6665,
      "مساحت": 6666,
      "خویش": 6667,
      "افزونه": 6668,
      "پیوسته": 6669,
      "مشخصی": 6670,
      "نیروگاه": 6671,
      "اعدام": 6672,
      "##کون": 6673,
      "##فره": 6674,
      "شهرها": 6675,
      "پهن": 6676,
      "نواحی": 6677,
      "قسم": 6678,
      "پرسپ": 6679,
      "الوده": 6680,
      "##گویی": 6681,
      "مدال": 6682,
      "معدن": 6683,
      "تحریک": 6684,
      "دیروز": 6685,
      "##کست": 6686,
      "پارس": 6687,
      "منف": 6688,
      "برندهای": 6689,
      "کالیفرنیا": 6690,
      "جریمه": 6691,
      "بگیریم": 6692,
      "دیجیت": 6693,
      "بطور": 6694,
      "گفتند": 6695,
      "۲۰۰۰": 6696,
      "بغداد": 6697,
      "پمپ": 6698,
      "##gle": 6699,
      "نکند": 6700,
      "مشرو": 6701,
      "ماری": 6702,
      "التح": 6703,
      "متمای": 6704,
      "اتحاد": 6705,
      "گرمای": 6706,
      "Pl": 6707,
      "یوتی": 6708,
      "مرتب": 6709,
      "مکال": 6710,
      "5G": 6711,
      "منظم": 6712,
      "انز": 6713,
      "لذا": 6714,
      "##یتور": 6715,
      "##یما": 6716,
      "##شویی": 6717,
      "ادعای": 6718,
      "بدی": 6719,
      "اوراق": 6720,
      "##اطر": 6721,
      "امپر": 6722,
      "حساسیت": 6723,
      "گور": 6724,
      "ارک": 6725,
      "پرست": 6726,
      "سازه": 6727,
      "مرسدس": 6728,
      "##اقی": 6729,
      "داوط": 6730,
      "بنویس": 6731,
      "راضی": 6732,
      "دغد": 6733,
      "##چین": 6734,
      "ابن": 6735,
      "مربوطه": 6736,
      "GT": 6737,
      "##ax": 6738,
      "بره": 6739,
      "عث": 6740,
      "محصولاتی": 6741,
      "سلطان": 6742,
      "بخوانید": 6743,
      "عموما": 6744,
      "خوراکی": 6745,
      "خواهم": 6746,
      "##ell": 6747,
      "الا": 6748,
      "علام": 6749,
      "پژوهشی": 6750,
      "##جات": 6751,
      "قاج": 6752,
      "واضح": 6753,
      "##one": 6754,
      "سگ": 6755,
      "تنش": 6756,
      "اعداد": 6757,
      "دانسته": 6758,
      "چیزهایی": 6759,
      "##LED": 6760,
      "دغدغه": 6761,
      "##ایشی": 6762,
      "تقاضای": 6763,
      "14": 6764,
      "لمس": 6765,
      "بدهند": 6766,
      "حرکات": 6767,
      "مقط": 6768,
      "##یات": 6769,
      "##ast": 6770,
      "قند": 6771,
      "کوب": 6772,
      "مجمع": 6773,
      "پره": 6774,
      "##سلط": 6775,
      "منو": 6776,
      "##ist": 6777,
      "فولاد": 6778,
      "یونانی": 6779,
      "گازی": 6780,
      "##روز": 6781,
      "دستورال": 6782,
      "دیجیتالی": 6783,
      "ناک": 6784,
      "باران": 6785,
      "صبر": 6786,
      "مارکت": 6787,
      "اواس": 6788,
      "اندام": 6789,
      "۲۰۰۹": 6790,
      "##سو": 6791,
      "مدیره": 6792,
      "سایز": 6793,
      "تعادل": 6794,
      "ایین": 6795,
      "خانوادگی": 6796,
      "الح": 6797,
      "استعد": 6798,
      "De": 6799,
      "ماندن": 6800,
      "##PS": 6801,
      "##وانه": 6802,
      "##گونی": 6803,
      "گذرد": 6804,
      "هفتم": 6805,
      "##ik": 6806,
      "مترو": 6807,
      "یونان": 6808,
      "##طاف": 6809,
      "کرم": 6810,
      "بازیگران": 6811,
      "سرگرمی": 6812,
      "صدها": 6813,
      "##طو": 6814,
      "گردن": 6815,
      "ژنتی": 6816,
      "مختص": 6817,
      "##ub": 6818,
      "ظه": 6819,
      "##ine": 6820,
      "اسمارت": 6821,
      "داروهای": 6822,
      "درمورد": 6823,
      "بج": 6824,
      "##دامی": 6825,
      "ازمایشگاه": 6826,
      "صادق": 6827,
      "مخصوصا": 6828,
      "تعلق": 6829,
      "##بیا": 6830,
      "##ردن": 6831,
      "##کین": 6832,
      "مجتمع": 6833,
      "نوین": 6834,
      "شکر": 6835,
      "##ولان": 6836,
      "هواپیمای": 6837,
      "فروشنده": 6838,
      "گره": 6839,
      "پوی": 6840,
      "##ادمی": 6841,
      "ایتالیایی": 6842,
      "رادیو": 6843,
      "##جویی": 6844,
      "مشکی": 6845,
      "برزیل": 6846,
      "مقدس": 6847,
      "اکسی": 6848,
      "برتری": 6849,
      "پاییز": 6850,
      "##oogle": 6851,
      "نقره": 6852,
      "الدین": 6853,
      "انعطاف": 6854,
      "##یدند": 6855,
      "تیمی": 6856,
      "۱۹۲": 6857,
      "##اذ": 6858,
      "مسیری": 6859,
      "وضوح": 6860,
      "التحص": 6861,
      "عبار": 6862,
      "سکه": 6863,
      "تبادل": 6864,
      "تعطیل": 6865,
      "یزد": 6866,
      "ادغام": 6867,
      "اگهی": 6868,
      "اینها": 6869,
      "فو": 6870,
      "Al": 6871,
      "##فیس": 6872,
      "کابین": 6873,
      "تاریک": 6874,
      "تحقق": 6875,
      "کلیسای": 6876,
      "##سنجی": 6877,
      "لات": 6878,
      "فیلی": 6879,
      "چشمه": 6880,
      "کیبورد": 6881,
      "بلاف": 6882,
      "اینجاست": 6883,
      "برداشته": 6884,
      "سپرده": 6885,
      "مفهومی": 6886,
      "داران": 6887,
      "۳۳": 6888,
      "پرسپولیس": 6889,
      "##خاص": 6890,
      "##کشی": 6891,
      "ارمنی": 6892,
      "باریک": 6893,
      "Sh": 6894,
      "دانشگاهی": 6895,
      "زوج": 6896,
      "بدل": 6897,
      "نقلیه": 6898,
      "زومیت": 6899,
      "منوی": 6900,
      "بخاطر": 6901,
      "پزشکان": 6902,
      "##شکل": 6903,
      "نهایتا": 6904,
      "##زاری": 6905,
      "مازند": 6906,
      "سفارت": 6907,
      "##طبی": 6908,
      "##پاد": 6909,
      "پذیرفته": 6910,
      "افسردگی": 6911,
      "نوبت": 6912,
      "انیمیشن": 6913,
      "##راع": 6914,
      "16": 6915,
      "دیدم": 6916,
      "پالایشگاه": 6917,
      "کارمند": 6918,
      "موزیک": 6919,
      "بیاورد": 6920,
      "مالکیت": 6921,
      "مگر": 6922,
      "##ارم": 6923,
      "##اباد": 6924,
      "رسما": 6925,
      "ویديویی": 6926,
      "فتح": 6927,
      "##ace": 6928,
      "##یترز": 6929,
      "میبا": 6930,
      "مات": 6931,
      "نقض": 6932,
      "##وطه": 6933,
      "معاونت": 6934,
      "دستورالعمل": 6935,
      "نشریه": 6936,
      "بلافاصله": 6937,
      "تظاه": 6938,
      "قطار": 6939,
      "کامپیوت": 6940,
      "##راقی": 6941,
      "سوپر": 6942,
      "##ES": 6943,
      "لیتری": 6944,
      "برن": 6945,
      "فدر": 6946,
      "##ادو": 6947,
      "نظری": 6948,
      "انحص": 6949,
      "۳۶": 6950,
      "وری": 6951,
      "فیبر": 6952,
      "اشتغال": 6953,
      "##فیه": 6954,
      "درختان": 6955,
      "##NA": 6956,
      "##اطع": 6957,
      "کمال": 6958,
      "جغرافیایی": 6959,
      "شهرک": 6960,
      "وکیل": 6961,
      "محرک": 6962,
      "شایع": 6963,
      "منافع": 6964,
      "تورم": 6965,
      "لاک": 6966,
      "دایره": 6967,
      "رسند": 6968,
      "بزند": 6969,
      "گانه": 6970,
      "ارمغان": 6971,
      "شماری": 6972,
      "دايمی": 6973,
      "اسپرت": 6974,
      "۶۰۰": 6975,
      "سرنشین": 6976,
      "مقداری": 6977,
      "خاطرات": 6978,
      "توابع": 6979,
      "الکس": 6980,
      "تروریستی": 6981,
      "##خصی": 6982,
      "کلان": 6983,
      "هکر": 6984,
      "راهنمای": 6985,
      "قران": 6986,
      "خطی": 6987,
      "جنگی": 6988,
      "معدنی": 6989,
      "سازگار": 6990,
      "##30": 6991,
      "موتورهای": 6992,
      "میدهد": 6993,
      "محض": 6994,
      "میگوید": 6995,
      "رج": 6996,
      "عط": 6997,
      "##ازدهم": 6998,
      "نداریم": 6999,
      "جالبی": 7000,
      "##گرفته": 7001,
      "میتوانید": 7002,
      "گذارند": 7003,
      "##نوی": 7004,
      "سیلندر": 7005,
      "ببرند": 7006,
      "##ue": 7007,
      "میتواند": 7008,
      "ویلی": 7009,
      "سپری": 7010,
      "ورزشگاه": 7011,
      "لایحه": 7012,
      "جاس": 7013,
      "تجربیات": 7014,
      "راس": 7015,
      "مظ": 7016,
      "اکسپ": 7017,
      "امارات": 7018,
      "دونالد": 7019,
      "اکادمی": 7020,
      "اثرات": 7021,
      "##ارشی": 7022,
      "قسمتی": 7023,
      "##شایی": 7024,
      "مهار": 7025,
      "خراب": 7026,
      "کپ": 7027,
      "حرکتی": 7028,
      "ناو": 7029,
      "قصه": 7030,
      "##ورن": 7031,
      "مریخ": 7032,
      "دیوان": 7033,
      "##شیان": 7034,
      "نفره": 7035,
      "##se": 7036,
      "##گرفت": 7037,
      "##نشان": 7038,
      "##اورده": 7039,
      "نخواهند": 7040,
      "نهادهای": 7041,
      "نویسندگان": 7042,
      "بیرونی": 7043,
      "تاسیسات": 7044,
      "هندی": 7045,
      "##يون": 7046,
      "چوبی": 7047,
      "حوادث": 7048,
      "منتهی": 7049,
      "باخت": 7050,
      "##th": 7051,
      "خواهان": 7052,
      "امت": 7053,
      "##خوانی": 7054,
      "افسانه": 7055,
      "۲۰۰۶": 7056,
      "##کسوس": 7057,
      "علیر": 7058,
      "زلز": 7059,
      "شیک": 7060,
      "شاسی": 7061,
      "ناام": 7062,
      "سینمای": 7063,
      "برایش": 7064,
      "رویترز": 7065,
      "تعلی": 7066,
      "۳۴": 7067,
      "نتوانست": 7068,
      "زلزله": 7069,
      "یخچال": 7070,
      "بهم": 7071,
      "اضطراب": 7072,
      "انال": 7073,
      "اشکال": 7074,
      "بوت": 7075,
      "سوا": 7076,
      "ساس": 7077,
      "شام": 7078,
      "الوم": 7079,
      "حمام": 7080,
      "تقد": 7081,
      "میکنیم": 7082,
      "ثبات": 7083,
      "نرو": 7084,
      "۲۰۰۷": 7085,
      "هشتم": 7086,
      "##ازن": 7087,
      "AMD": 7088,
      "فردا": 7089,
      "مادرش": 7090,
      "پهلوی": 7091,
      "الن": 7092,
      "ظهور": 7093,
      "##رنگ": 7094,
      "چنانچه": 7095,
      "خدای": 7096,
      "تردد": 7097,
      "مسک": 7098,
      "هیبر": 7099,
      "تایل": 7100,
      "وبلاگ": 7101,
      "##ind": 7102,
      "com": 7103,
      "بتوانیم": 7104,
      "مخلوط": 7105,
      "علامت": 7106,
      "##ark": 7107,
      "سرپرست": 7108,
      "##ولین": 7109,
      "##TE": 7110,
      "الگوی": 7111,
      "خشم": 7112,
      "راک": 7113,
      "دیسک": 7114,
      "پیشنهادی": 7115,
      "Google": 7116,
      "دارا": 7117,
      "گویی": 7118,
      "##چر": 7119,
      "##our": 7120,
      "مشاغل": 7121,
      "خرج": 7122,
      "قضیه": 7123,
      "بخت": 7124,
      "تایپ": 7125,
      "سطحی": 7126,
      "ترش": 7127,
      "کارفر": 7128,
      "##ight": 7129,
      "استانداردهای": 7130,
      "یاداوری": 7131,
      "معلوم": 7132,
      "شدیم": 7133,
      "بب": 7134,
      "##وریسم": 7135,
      "عبارتند": 7136,
      "قمری": 7137,
      "۷۵": 7138,
      "طر": 7139,
      "##يید": 7140,
      "تسهیلات": 7141,
      "مقاد": 7142,
      "یاداور": 7143,
      "رونق": 7144,
      "واگذار": 7145,
      "تصاویری": 7146,
      "##التی": 7147,
      "تکیه": 7148,
      "پادکست": 7149,
      "فوک": 7150,
      "فرستاده": 7151,
      "منتقدان": 7152,
      "۱۹۰": 7153,
      "روشنایی": 7154,
      "داستانی": 7155,
      "تصفیه": 7156,
      "کارافرین": 7157,
      "۴۸": 7158,
      "گرایی": 7159,
      "داشتیم": 7160,
      "##گام": 7161,
      "پیست": 7162,
      "##ure": 7163,
      "برچسب": 7164,
      "ماست": 7165,
      "مکمل": 7166,
      "چارچوب": 7167,
      "لوک": 7168,
      "دروغ": 7169,
      "کاراک": 7170,
      "مصرفی": 7171,
      "رقص": 7172,
      "تلفنی": 7173,
      "##رید": 7174,
      "همسرش": 7175,
      "پراک": 7176,
      "##يه": 7177,
      "امواج": 7178,
      "موهای": 7179,
      "فورد": 7180,
      "خونه": 7181,
      "بله": 7182,
      "##age": 7183,
      "بینیم": 7184,
      "فا": 7185,
      "جفت": 7186,
      "قطب": 7187,
      "قضا": 7188,
      "استانبول": 7189,
      "##سمه": 7190,
      "اخلاقی": 7191,
      "حب": 7192,
      "سلس": 7193,
      "ارتقای": 7194,
      "بپرس": 7195,
      "مانیتور": 7196,
      "کرمانشاه": 7197,
      "نفع": 7198,
      "##اپور": 7199,
      "مارت": 7200,
      "کیت": 7201,
      "بنای": 7202,
      "توم": 7203,
      "گرفتم": 7204,
      "کامپیوتری": 7205,
      "کوان": 7206,
      "فروخته": 7207,
      "گیگاهرت": 7208,
      "##میلی": 7209,
      "هاش": 7210,
      "متشکل": 7211,
      "کتابی": 7212,
      "نانوم": 7213,
      "اعتباری": 7214,
      "خالص": 7215,
      "مستقیما": 7216,
      "اشپز": 7217,
      "وصل": 7218,
      "کامی": 7219,
      "خودروسازی": 7220,
      "حریم": 7221,
      "##ov": 7222,
      "برجام": 7223,
      "مجسمه": 7224,
      "مض": 7225,
      "پاور": 7226,
      "##جمله": 7227,
      "پخت": 7228,
      "نیت": 7229,
      "Bl": 7230,
      "سلیقه": 7231,
      "##امع": 7232,
      "##سام": 7233,
      "بدهی": 7234,
      "۱۵۰": 7235,
      "خاند": 7236,
      "اشخاص": 7237,
      "رسانده": 7238,
      "خز": 7239,
      "شنیدن": 7240,
      "بالاتری": 7241,
      "معلم": 7242,
      "تصادف": 7243,
      "50": 7244,
      "۱۳۳": 7245,
      "##احتی": 7246,
      "رام": 7247,
      "نداده": 7248,
      "بستری": 7249,
      "دینی": 7250,
      "بنابر": 7251,
      "بلوتو": 7252,
      "محافظ": 7253,
      "ایمن": 7254,
      "##ant": 7255,
      "ضخامت": 7256,
      "چاه": 7257,
      "سويد": 7258,
      "لمسی": 7259,
      "پردازشی": 7260,
      "فشرده": 7261,
      "بگم": 7262,
      "گردیده": 7263,
      "دز": 7264,
      "شواهد": 7265,
      "گیلان": 7266,
      "بیز": 7267,
      "اي": 7268,
      "فدرال": 7269,
      "برانگ": 7270,
      "جیمز": 7271,
      "سلسله": 7272,
      "##ندم": 7273,
      "وسیع": 7274,
      "خودتون": 7275,
      "دراورد": 7276,
      "تام": 7277,
      "تدریج": 7278,
      "سرگرم": 7279,
      "تربیت": 7280,
      "سالهای": 7281,
      "##اخته": 7282,
      "##ass": 7283,
      "مسیحی": 7284,
      "کامپیوترهای": 7285,
      "۹۵": 7286,
      "##کوپ": 7287,
      "غار": 7288,
      "درونی": 7289,
      "##فران": 7290,
      "##فش": 7291,
      "پو": 7292,
      "##فند": 7293,
      "اعط": 7294,
      "کهن": 7295,
      "مغزی": 7296,
      "قدمت": 7297,
      "بیدار": 7298,
      "اکسیژن": 7299,
      "صلاح": 7300,
      "لقب": 7301,
      "سیگار": 7302,
      "##سکی": 7303,
      "جزء": 7304,
      "خاطرنشان": 7305,
      "##اوی": 7306,
      "سنگی": 7307,
      "عراقی": 7308,
      "##۱۰": 7309,
      "تسهیل": 7310,
      "ولت": 7311,
      "اوک": 7312,
      "نع": 7313,
      "۳۷": 7314,
      "هلند": 7315,
      "مکزیک": 7316,
      "مشابهی": 7317,
      "فلش": 7318,
      "عطر": 7319,
      "چهل": 7320,
      "وص": 7321,
      "##ter": 7322,
      "فضاپ": 7323,
      "کاربردهای": 7324,
      "مردمی": 7325,
      "اتخ": 7326,
      "اردو": 7327,
      "احمدی": 7328,
      "نوب": 7329,
      "##وتن": 7330,
      "##ضان": 7331,
      "هایتان": 7332,
      "عکاس": 7333,
      "ویزای": 7334,
      "##اطیسی": 7335,
      "شاعر": 7336,
      "##انیان": 7337,
      "حکایت": 7338,
      "##مینی": 7339,
      "حامی": 7340,
      "۱۲۰": 7341,
      "طالبان": 7342,
      "Tr": 7343,
      "ساکنان": 7344,
      "دارن": 7345,
      "جوایز": 7346,
      "مطلع": 7347,
      "##تین": 7348,
      "محکم": 7349,
      "شناختی": 7350,
      "تردید": 7351,
      "دشت": 7352,
      "نادیده": 7353,
      "اواسط": 7354,
      "سرچ": 7355,
      "مغازه": 7356,
      "عملا": 7357,
      "##رینی": 7358,
      "کاس": 7359,
      "خستگی": 7360,
      "رقابتی": 7361,
      "۸۰۰": 7362,
      "الملل": 7363,
      "##زده": 7364,
      "مفاهیم": 7365,
      "روس": 7366,
      "تلقی": 7367,
      "فرماندهی": 7368,
      "مقطع": 7369,
      "اسما": 7370,
      "پکی": 7371,
      "##فری": 7372,
      "مسدود": 7373,
      "Th": 7374,
      "تکامل": 7375,
      "مجازات": 7376,
      "ابزاری": 7377,
      "##شند": 7378,
      "اتخاذ": 7379,
      "۹۷": 7380,
      "##۹۹": 7381,
      "روستاهای": 7382,
      "تيوری": 7383,
      "پتان": 7384,
      "عثمانی": 7385,
      "نامش": 7386,
      "##باسی": 7387,
      "قوه": 7388,
      "ساعات": 7389,
      "برگزیده": 7390,
      "ویلیام": 7391,
      "هماهنگ": 7392,
      "##چاق": 7393,
      "##شماری": 7394,
      "عبدالله": 7395,
      "۶۵": 7396,
      "مندی": 7397,
      "صعود": 7398,
      "##SD": 7399,
      "صحت": 7400,
      "گشتاور": 7401,
      "حدس": 7402,
      "18": 7403,
      "اکران": 7404,
      "##شینی": 7405,
      "سرت": 7406,
      "گردند": 7407,
      "اگز": 7408,
      "##ریحی": 7409,
      "توي": 7410,
      "میباشد": 7411,
      "۴۲": 7412,
      "باق": 7413,
      "فص": 7414,
      "عنصر": 7415,
      "##شیر": 7416,
      "بابا": 7417,
      "توضیحات": 7418,
      "بخور": 7419,
      "الج": 7420,
      "##ودا": 7421,
      "##یتون": 7422,
      "گیرنده": 7423,
      "##راسی": 7424,
      "لرزه": 7425,
      "پذیرفت": 7426,
      "امری": 7427,
      "اینگونه": 7428,
      "ماهیت": 7429,
      "خبرنگاران": 7430,
      "اندک": 7431,
      "دوام": 7432,
      "موان": 7433,
      "خاندان": 7434,
      "۱۳۰": 7435,
      "کرون": 7436,
      "جانشین": 7437,
      "مقادیر": 7438,
      "نشانی": 7439,
      "حضوری": 7440,
      "عدالت": 7441,
      "خوز": 7442,
      "ایرنا": 7443,
      "راجع": 7444,
      "دادم": 7445,
      "سفیر": 7446,
      "متنوعی": 7447,
      "مبتل": 7448,
      "یوتیوب": 7449,
      "##اسر": 7450,
      "یار": 7451,
      "بریز": 7452,
      "اکان": 7453,
      "۷۰۰": 7454,
      "التحصیل": 7455,
      "نیمی": 7456,
      "وه": 7457,
      "##نوان": 7458,
      "ايت": 7459,
      "دانشجو": 7460,
      "سرنو": 7461,
      "الته": 7462,
      "##ورهای": 7463,
      "سرفیس": 7464,
      "تعطیلات": 7465,
      "مسکونی": 7466,
      "th": 7467,
      "۵۵": 7468,
      "اطلاعی": 7469,
      "جبه": 7470,
      "ولایت": 7471,
      "پرفروش": 7472,
      "##پرد": 7473,
      "مسکو": 7474,
      "سفرهای": 7475,
      "رگ": 7476,
      "هارد": 7477,
      "رویه": 7478,
      "برف": 7479,
      "قاجار": 7480,
      "سرقت": 7481,
      "فت": 7482,
      "حیاتی": 7483,
      "بینداز": 7484,
      "ساحلی": 7485,
      "موسسات": 7486,
      "##طوری": 7487,
      "مسلمانان": 7488,
      "نامن": 7489,
      "اهدا": 7490,
      "زنند": 7491,
      "ترمز": 7492,
      "شماست": 7493,
      "علاق": 7494,
      "کارامد": 7495,
      "اتوماتیک": 7496,
      "##افل": 7497,
      "تیز": 7498,
      "ضرر": 7499,
      "کارگاه": 7500,
      "نابود": 7501,
      "##الح": 7502,
      "شهردار": 7503,
      "##بورد": 7504,
      "پروانه": 7505,
      "تعلیق": 7506,
      "##ابد": 7507,
      "میاد": 7508,
      "برابری": 7509,
      "مهاج": 7510,
      "st": 7511,
      "مسیح": 7512,
      "تار": 7513,
      "محوطه": 7514,
      "##کیف": 7515,
      "سنی": 7516,
      "سوزی": 7517,
      "دب": 7518,
      "همت": 7519,
      "رزرو": 7520,
      "ندهید": 7521,
      "نشسته": 7522,
      "بذ": 7523,
      "دیوید": 7524,
      "لینوکس": 7525,
      "غم": 7526,
      "کاست": 7527,
      "سامان": 7528,
      "فراری": 7529,
      "درا": 7530,
      "کوک": 7531,
      "صاحبان": 7532,
      "اندیش": 7533,
      "##پوش": 7534,
      "قوت": 7535,
      "دارویی": 7536,
      "##کلت": 7537,
      "مصد": 7538,
      "مکت": 7539,
      "پتانسیل": 7540,
      "مهندس": 7541,
      "معاصر": 7542,
      "پکیج": 7543,
      "استودیو": 7544,
      "##وود": 7545,
      "25": 7546,
      "دوی": 7547,
      "گواهی": 7548,
      "بارش": 7549,
      "۱۲۸": 7550,
      "جاوا": 7551,
      "##end": 7552,
      "شیعه": 7553,
      "خات": 7554,
      "نمره": 7555,
      "امیدوارم": 7556,
      "مرزی": 7557,
      "سکونت": 7558,
      "غیرقابل": 7559,
      "واگن": 7560,
      "۲۰۰۵": 7561,
      "خوزستان": 7562,
      "دلیلی": 7563,
      "کهک": 7564,
      "حدودی": 7565,
      "دبیرستان": 7566,
      "تفریح": 7567,
      "ردیف": 7568,
      "##pl": 7569,
      "اوب": 7570,
      "رقبای": 7571,
      "معتر": 7572,
      "کردستان": 7573,
      "##ud": 7574,
      "پارلمان": 7575,
      "حقیقی": 7576,
      "برون": 7577,
      "پرا": 7578,
      "خانوار": 7579,
      "##عکس": 7580,
      "شایعه": 7581,
      "##طوبت": 7582,
      "مازندران": 7583,
      "رصد": 7584,
      "بااین": 7585,
      "##ارستان": 7586,
      "کاوش": 7587,
      "شمسی": 7588,
      "برش": 7589,
      "رطوبت": 7590,
      "سوژه": 7591,
      "##ثری": 7592,
      "چر": 7593,
      "قاچاق": 7594,
      "اکانت": 7595,
      "وحشت": 7596,
      "پله": 7597,
      "شیرینی": 7598,
      "جبهه": 7599,
      "اقا": 7600,
      "همسایه": 7601,
      "یابی": 7602,
      "برانگیز": 7603,
      "منحص": 7604,
      "ابلا": 7605,
      "تمدید": 7606,
      "ابشار": 7607,
      "حامل": 7608,
      "پتنت": 7609,
      "مردی": 7610,
      "کوانت": 7611,
      "##منت": 7612,
      "سنجش": 7613,
      "شعار": 7614,
      "گرا": 7615,
      "شکم": 7616,
      "پیامک": 7617,
      "بلوتوث": 7618,
      "Ad": 7619,
      "ابراهیم": 7620,
      "۳۸": 7621,
      "اختراع": 7622,
      "اندیشه": 7623,
      "##یشگی": 7624,
      "##عان": 7625,
      "قایق": 7626,
      "استث": 7627,
      "کاش": 7628,
      "اخراج": 7629,
      "##ونزی": 7630,
      "هرکدام": 7631,
      "کلام": 7632,
      "مباح": 7633,
      "سواحل": 7634,
      "یادشده": 7635,
      "الومینی": 7636,
      "Ex": 7637,
      "کجارو": 7638,
      "قدری": 7639,
      "تفریحی": 7640,
      "##ill": 7641,
      "گرایش": 7642,
      "لیس": 7643,
      "اقدامی": 7644,
      "دکور": 7645,
      "ضرورت": 7646,
      "##وگرافی": 7647,
      "درگذشته": 7648,
      "مامور": 7649,
      "مطمينا": 7650,
      "##iz": 7651,
      "یکبار": 7652,
      "دوستی": 7653,
      "متق": 7654,
      "##گردان": 7655,
      "قبر": 7656,
      "۴۴": 7657,
      "باکیف": 7658,
      "خودران": 7659,
      "مبتلایان": 7660,
      "شادی": 7661,
      "##درضا": 7662,
      "شعبه": 7663,
      "خرده": 7664,
      "##شهر": 7665,
      "##امیک": 7666,
      "متمایز": 7667,
      "بعنوان": 7668,
      "فرایندهای": 7669,
      "هنرهای": 7670,
      "هوم": 7671,
      "عینک": 7672,
      "کوچکتر": 7673,
      "##وندی": 7674,
      "##ire": 7675,
      "ایل": 7676,
      "کالای": 7677,
      "دموکرات": 7678,
      "برم": 7679,
      "مایکل": 7680,
      "مسیرهای": 7681,
      "ترکیبات": 7682,
      "نما": 7683,
      "App": 7684,
      "امضای": 7685,
      "نوسان": 7686,
      "اجزای": 7687,
      "بازخورد": 7688,
      "سعید": 7689,
      "ویدیوی": 7690,
      "فرمت": 7691,
      "جزایر": 7692,
      "استح": 7693,
      "نیوز": 7694,
      "##io": 7695,
      "ازجمله": 7696,
      "رفتارهای": 7697,
      "جانب": 7698,
      "بف": 7699,
      "پردازیم": 7700,
      "کانون": 7701,
      "اعتراضات": 7702,
      "فوکوس": 7703,
      "رابرت": 7704,
      "##اسم": 7705,
      "بلک": 7706,
      "##۱۹": 7707,
      "##ain": 7708,
      "چشمگیری": 7709,
      "رانندگان": 7710,
      "##مزد": 7711,
      "Com": 7712,
      "پیروز": 7713,
      "برترین": 7714,
      "سرکوب": 7715,
      "شکن": 7716,
      "فساد": 7717,
      "تاثیرات": 7718,
      "وگو": 7719,
      "##قوه": 7720,
      "فور": 7721,
      "نظرسنجی": 7722,
      "ایسوس": 7723,
      "##اهو": 7724,
      "##ock": 7725,
      "جلد": 7726,
      "مناسبت": 7727,
      "یاری": 7728,
      "نیس": 7729,
      "راهبرد": 7730,
      "مسافت": 7731,
      "سون": 7732,
      "##ix": 7733,
      "جوانی": 7734,
      "کشورمان": 7735,
      "تویوتا": 7736,
      "خصوصا": 7737,
      "##عش": 7738,
      "##نوو": 7739,
      "##ادله": 7740,
      "نظم": 7741,
      "لایت": 7742,
      "خاطره": 7743,
      "ایراد": 7744,
      "۱۳۲": 7745,
      "پوشیده": 7746,
      "ریخت": 7747,
      "ازط": 7748,
      "القا": 7749,
      "تفسیر": 7750,
      "دربر": 7751,
      "##ode": 7752,
      "جزی": 7753,
      "سازند": 7754,
      "بات": 7755,
      "دهستان": 7756,
      "دفاعی": 7757,
      "##کنار": 7758,
      "خودت": 7759,
      "حفاری": 7760,
      "اری": 7761,
      "##ارتمان": 7762,
      "اجباری": 7763,
      "##واز": 7764,
      "خسارت": 7765,
      "##عار": 7766,
      "##نجان": 7767,
      "##جیه": 7768,
      "HTC": 7769,
      "ناه": 7770,
      "دیابت": 7771,
      "##ویدیا": 7772,
      "قله": 7773,
      "هک": 7774,
      "خوشم": 7775,
      "رفتم": 7776,
      "گفتیم": 7777,
      "##جانی": 7778,
      "سلطنتی": 7779,
      "انویدیا": 7780,
      "مصوبه": 7781,
      "زندگ": 7782,
      "اکثریت": 7783,
      "لزوم": 7784,
      "##act": 7785,
      "سرنوشت": 7786,
      "دخالت": 7787,
      "##سانی": 7788,
      "شوم": 7789,
      "##pt": 7790,
      "بهانه": 7791,
      "مدام": 7792,
      "##nter": 7793,
      "فرستاد": 7794,
      "بگذارند": 7795,
      "دبی": 7796,
      "##یای": 7797,
      "زیستی": 7798,
      "##ویچ": 7799,
      "جهش": 7800,
      "طراحان": 7801,
      "شلوغ": 7802,
      "مجزا": 7803,
      "##مداد": 7804,
      "البر": 7805,
      "زخم": 7806,
      "جایگزینی": 7807,
      "فرس": 7808,
      "محاسبات": 7809,
      "قاضی": 7810,
      "هستن": 7811,
      "دنباله": 7812,
      "کارگر": 7813,
      "اسپیکر": 7814,
      "##باله": 7815,
      "مغن": 7816,
      "سرب": 7817,
      "فینال": 7818,
      "تعجب": 7819,
      "##میمی": 7820,
      "قرنط": 7821,
      "##ang": 7822,
      "کاراکتر": 7823,
      "حفره": 7824,
      "##کوه": 7825,
      "شارژر": 7826,
      "دیپلمات": 7827,
      "ویک": 7828,
      "##وات": 7829,
      "منصوب": 7830,
      "تجمع": 7831,
      "درص": 7832,
      "نمودار": 7833,
      "درخش": 7834,
      "رفتند": 7835,
      "لنوو": 7836,
      "##مول": 7837,
      "روحی": 7838,
      "##صی": 7839,
      "##ونم": 7840,
      "عظ": 7841,
      "لحظ": 7842,
      "راد": 7843,
      "پلاستیکی": 7844,
      "زایمان": 7845,
      "فضان": 7846,
      "تخلیه": 7847,
      "نانومتری": 7848,
      "اعزام": 7849,
      "خدماتی": 7850,
      "##بینی": 7851,
      "زوم": 7852,
      "هار": 7853,
      "نهم": 7854,
      "نداره": 7855,
      "امان": 7856,
      "استانه": 7857,
      "مکالمه": 7858,
      "کنین": 7859,
      "رفتاری": 7860,
      "حدودا": 7861,
      "نشر": 7862,
      "##عاتی": 7863,
      "افزون": 7864,
      "مخزن": 7865,
      "##لن": 7866,
      "تمدن": 7867,
      "نصف": 7868,
      "سرشماری": 7869,
      "##کیک": 7870,
      "مترم": 7871,
      "انتخابی": 7872,
      "ارس": 7873,
      "وسیعی": 7874,
      "گمان": 7875,
      "##ارتان": 7876,
      "تصمیمات": 7877,
      "##000": 7878,
      "مدنی": 7879,
      "ضم": 7880,
      "۹۶": 7881,
      "ناگ": 7882,
      "۸۵": 7883,
      "Ar": 7884,
      "اجتن": 7885,
      "##لای": 7886,
      "پلاستیک": 7887,
      "قرنطینه": 7888,
      "طرفدار": 7889,
      "اکسپریا": 7890,
      "پرطرف": 7891,
      "ارش": 7892,
      "بفه": 7893,
      "بالقوه": 7894,
      "Core": 7895,
      "##are": 7896,
      "موبایلی": 7897,
      "غافل": 7898,
      "##ارتی": 7899,
      "##ile": 7900,
      "عف": 7901,
      "فراز": 7902,
      "کمون": 7903,
      "نکسوس": 7904,
      "بیستم": 7905,
      "بام": 7906,
      "جوامع": 7907,
      "##قام": 7908,
      "بخواهیم": 7909,
      "بط": 7910,
      "زباله": 7911,
      "دگر": 7912,
      "ناگهانی": 7913,
      "رقبا": 7914,
      "رادیویی": 7915,
      "۱۳۹۹": 7916,
      "چت": 7917,
      "خاصیت": 7918,
      "شریک": 7919,
      "اشپزخانه": 7920,
      "امیدواریم": 7921,
      "لهستان": 7922,
      "تصرف": 7923,
      "نداشتند": 7924,
      "اسیایی": 7925,
      "اجتناب": 7926,
      "۲۰۰۴": 7927,
      "کنسر": 7928,
      "برسند": 7929,
      "جسمی": 7930,
      "اگو": 7931,
      "بران": 7932,
      "رویدادهای": 7933,
      "نمایشی": 7934,
      "هندو": 7935,
      "سخنان": 7936,
      "پیروی": 7937,
      "جدایی": 7938,
      "مکر": 7939,
      "رسیدند": 7940,
      "سول": 7941,
      "##روح": 7942,
      "درخشان": 7943,
      "One": 7944,
      "تصادفی": 7945,
      "بنوی": 7946,
      "گویا": 7947,
      "##وو": 7948,
      "۵۱": 7949,
      "اندونزی": 7950,
      "گربه": 7951,
      "##جموع": 7952,
      "ریچ": 7953,
      "گرما": 7954,
      "اختل": 7955,
      "##کب": 7956,
      "کالری": 7957,
      "بخشد": 7958,
      "اوست": 7959,
      "فضاهای": 7960,
      "##توجه": 7961,
      "کیسه": 7962,
      "مرزهای": 7963,
      "فرنگی": 7964,
      "همیشگی": 7965,
      "##کتاپ": 7966,
      "خودرویی": 7967,
      "بشن": 7968,
      "مدافع": 7969,
      "تیپ": 7970,
      "موانع": 7971,
      "##نل": 7972,
      "انتخاباتی": 7973,
      "قرص": 7974,
      "نخواهید": 7975,
      "روده": 7976,
      "##جاع": 7977,
      "نحوی": 7978,
      "ايتلاف": 7979,
      "شلیک": 7980,
      "##رکن": 7981,
      "کیش": 7982,
      "##ازل": 7983,
      "ایام": 7984,
      "ملاح": 7985,
      "ظریف": 7986,
      "برام": 7987,
      "باردار": 7988,
      "توجیه": 7989,
      "دسکتاپ": 7990,
      "ابدا": 7991,
      "چشمان": 7992,
      "قهرمانان": 7993,
      "##نگاری": 7994,
      "ارتقاء": 7995,
      "##لم": 7996,
      "فرصتی": 7997,
      "ماهانه": 7998,
      "سلو": 7999,
      "فلور": 8000,
      "##نون": 8001,
      "سرما": 8002,
      "کوچه": 8003,
      "شانه": 8004,
      "صاف": 8005,
      "قاشق": 8006,
      "اماری": 8007,
      "خیره": 8008,
      "زح": 8009,
      "غلط": 8010,
      "دوش": 8011,
      "وقایع": 8012,
      "##طوب": 8013,
      "Cl": 8014,
      "کراس": 8015,
      "##ry": 8016,
      "ارایش": 8017,
      "مشخصه": 8018,
      "میخواه": 8019,
      "##اداران": 8020,
      "همدان": 8021,
      "موجودات": 8022,
      "ظهر": 8023,
      "مصوب": 8024,
      "درمی": 8025,
      "سکوت": 8026,
      "فراگیر": 8027,
      "بریتانیایی": 8028,
      "کیک": 8029,
      "##نر": 8030,
      "گمرک": 8031,
      "هکت": 8032,
      "یابند": 8033,
      "تسلط": 8034,
      "##eb": 8035,
      "انقلابی": 8036,
      "پایداری": 8037,
      "ابلاغ": 8038,
      "محمدرضا": 8039,
      "pro": 8040,
      "خواهر": 8041,
      "##لیتی": 8042,
      "والی": 8043,
      "انق": 8044,
      "بنام": 8045,
      "میزبانی": 8046,
      "قضاوت": 8047,
      "بنویسید": 8048,
      "##ریزی": 8049,
      "سراسری": 8050,
      "مودم": 8051,
      "همایش": 8052,
      "بشود": 8053,
      "ندارم": 8054,
      "##پور": 8055,
      "راز": 8056,
      "زیان": 8057,
      "پرندگان": 8058,
      "بصری": 8059,
      "LED": 8060,
      "همینطور": 8061,
      "تحسین": 8062,
      "بگویم": 8063,
      "##ib": 8064,
      "امریکايی": 8065,
      "فرق": 8066,
      "ایوان": 8067,
      "##ونز": 8068,
      "قزوین": 8069,
      "##جستان": 8070,
      "کین": 8071,
      "قار": 8072,
      "لبخ": 8073,
      "خریدار": 8074,
      "##کیو": 8075,
      "لاتین": 8076,
      "حالیکه": 8077,
      "نامی": 8078,
      "انص": 8079,
      "درنهایت": 8080,
      "متدا": 8081,
      "بازرسی": 8082,
      "##ایید": 8083,
      "استایل": 8084,
      "طرفین": 8085,
      "سبزیجات": 8086,
      "کناره": 8087,
      "بپردازید": 8088,
      "##بره": 8089,
      "بفر": 8090,
      "چهارمین": 8091,
      "ناپذیر": 8092,
      "میانی": 8093,
      "نقشی": 8094,
      "2017": 8095,
      "پورشه": 8096,
      "عام": 8097,
      "وابستگی": 8098,
      "صبحانه": 8099,
      "##ابانی": 8100,
      "##ite": 8101,
      "عقل": 8102,
      "انکار": 8103,
      "میشد": 8104,
      "انرا": 8105,
      "خونی": 8106,
      "بخواهد": 8107,
      "کادر": 8108,
      "نمایان": 8109,
      "سار": 8110,
      "املاک": 8111,
      "میک": 8112,
      "اثری": 8113,
      "ژنتیکی": 8114,
      "ونز": 8115,
      "##۴۰": 8116,
      "سیستمی": 8117,
      "پیت": 8118,
      "سرمربی": 8119,
      "ثروتمند": 8120,
      "باکیفیت": 8121,
      "کنکور": 8122,
      "کشورهایی": 8123,
      "رساندن": 8124,
      "اولی": 8125,
      "دستگاهی": 8126,
      "هیبریدی": 8127,
      "##eg": 8128,
      "##ew": 8129,
      "گیگاهرتز": 8130,
      "24": 8131,
      "خطا": 8132,
      "پروسه": 8133,
      "محلول": 8134,
      "دربار": 8135,
      "##اکر": 8136,
      "مارتین": 8137,
      "کمکی": 8138,
      "رحم": 8139,
      "پرطرفدار": 8140,
      "استریم": 8141,
      "تغییری": 8142,
      "پیج": 8143,
      "دختران": 8144,
      "##کوس": 8145,
      "اتریش": 8146,
      "استقرار": 8147,
      "تشریح": 8148,
      "هورمون": 8149,
      "بردار": 8150,
      "برلین": 8151,
      "فیر": 8152,
      "مباحث": 8153,
      "بعید": 8154,
      "۲۰۰۳": 8155,
      "ازطریق": 8156,
      "سلطنت": 8157,
      "##ذی": 8158,
      "##فورد": 8159,
      "ضریب": 8160,
      "ارژ": 8161,
      "تولیدات": 8162,
      "دلم": 8163,
      "تایمز": 8164,
      "تروریسم": 8165,
      "اکوسی": 8166,
      "اکتش": 8167,
      "تاثیری": 8168,
      "IP": 8169,
      "##یدر": 8170,
      "احتیاج": 8171,
      "سبد": 8172,
      "##فتی": 8173,
      "کاندید": 8174,
      "مجروح": 8175,
      "کدهای": 8176,
      "تسلی": 8177,
      "متقاضیان": 8178,
      "الزام": 8179,
      "ترم": 8180,
      "عناوین": 8181,
      "##مدت": 8182,
      "توده": 8183,
      "اگوست": 8184,
      "ندید": 8185,
      "تاریخچه": 8186,
      "تراکنش": 8187,
      "بادی": 8188,
      "تنفس": 8189,
      "##غیب": 8190,
      "لن": 8191,
      "ذوب": 8192,
      "##زنی": 8193,
      "خودکشی": 8194,
      "##وفان": 8195,
      "معبد": 8196,
      "ونزوي": 8197,
      "زاد": 8198,
      "کرای": 8199,
      "موردنظر": 8200,
      "شکسته": 8201,
      "اسپانیایی": 8202,
      "همد": 8203,
      "##یتان": 8204,
      "##edia": 8205,
      "##انونی": 8206,
      "بکشد": 8207,
      "4K": 8208,
      "لس": 8209,
      "مالیاتی": 8210,
      "تراکم": 8211,
      "سازگاری": 8212,
      "نگرفته": 8213,
      "تخلف": 8214,
      "درنظر": 8215,
      "بروند": 8216,
      "ناشن": 8217,
      "##وسه": 8218,
      "برسید": 8219,
      "##ep": 8220,
      "اصلاحات": 8221,
      "حواس": 8222,
      "پنجاه": 8223,
      "امدند": 8224,
      "تهویه": 8225,
      "معده": 8226,
      "تفاهم": 8227,
      "##فتد": 8228,
      "اشتی": 8229,
      "نداشتن": 8230,
      "بشناس": 8231,
      "مغناطیسی": 8232,
      "مولکول": 8233,
      "اسباب": 8234,
      "یهودیان": 8235,
      "ریت": 8236,
      "زخمی": 8237,
      "سرشار": 8238,
      "##ord": 8239,
      "تعطیلی": 8240,
      "بگویید": 8241,
      "بزرگسال": 8242,
      "ابه": 8243,
      "بتون": 8244,
      "گالری": 8245,
      "۴۳": 8246,
      "##فور": 8247,
      "سرتاسر": 8248,
      "مثبتی": 8249,
      "تسلیم": 8250,
      "پایش": 8251,
      "عضلات": 8252,
      "تایلند": 8253,
      "واتس": 8254,
      "مدیرکل": 8255,
      "تله": 8256,
      "باتوجه": 8257,
      "حسابی": 8258,
      "انتشارات": 8259,
      "بپردازد": 8260,
      "چرب": 8261,
      "##غر": 8262,
      "##ook": 8263,
      "کردی": 8264,
      "ساعته": 8265,
      "وک": 8266,
      "۱۰۰۰": 8267,
      "زبانی": 8268,
      "ساند": 8269,
      "صلی": 8270,
      "##عل": 8271,
      "نمایشگرهای": 8272,
      "اعضا": 8273,
      "ماموران": 8274,
      "فیلمبرداری": 8275,
      "کوهستانی": 8276,
      "نبودن": 8277,
      "خاکستری": 8278,
      "##واب": 8279,
      "بدانیم": 8280,
      "منطق": 8281,
      "رمزنگاری": 8282,
      "##امن": 8283,
      "التهاب": 8284,
      "غیرقانونی": 8285,
      "شورش": 8286,
      "نوجوانان": 8287,
      "جابه": 8288,
      "طاق": 8289,
      "هرمز": 8290,
      "سويیس": 8291,
      "حافظ": 8292,
      "Ph": 8293,
      "گرجستان": 8294,
      "مرطوب": 8295,
      "۲۰۲۱": 8296,
      "هول": 8297,
      "محد": 8298,
      "راهکارهای": 8299,
      "##ولای": 8300,
      "تشدید": 8301,
      "خودروسازان": 8302,
      "##گرو": 8303,
      "اشیاء": 8304,
      "گویش": 8305,
      "مگاب": 8306,
      "##ss": 8307,
      "موتورولا": 8308,
      "پارام": 8309,
      "نوروز": 8310,
      "دادیم": 8311,
      "نباشید": 8312,
      "نگارش": 8313,
      "شناسان": 8314,
      "۲۵۰": 8315,
      "افرا": 8316,
      "##پایه": 8317,
      "پیچیدگی": 8318,
      "بدنی": 8319,
      "ستار": 8320,
      "پاش": 8321,
      "##اکت": 8322,
      "فیلیپ": 8323,
      "##نام": 8324,
      "راکت": 8325,
      "استد": 8326,
      "محروم": 8327,
      "پسند": 8328,
      "بلوک": 8329,
      "لرزش": 8330,
      "اکبر": 8331,
      "OLED": 8332,
      "ارزهای": 8333,
      "خداوند": 8334,
      "۳۹": 8335,
      "خلاقانه": 8336,
      "##ویز": 8337,
      "##ld": 8338,
      "بازمی": 8339,
      "##فسی": 8340,
      "##ice": 8341,
      "SE": 8342,
      "هستی": 8343,
      "ونزويلا": 8344,
      "تقویم": 8345,
      "40": 8346,
      "هواداران": 8347,
      "چیزهای": 8348,
      "متد": 8349,
      "۱۹۹۰": 8350,
      "دریافتی": 8351,
      "حرار": 8352,
      "رفاه": 8353,
      "بپردازند": 8354,
      "ازش": 8355,
      "ساختمانی": 8356,
      "گوناگونی": 8357,
      "متداول": 8358,
      "مخابراتی": 8359,
      "ارقام": 8360,
      "اسکات": 8361,
      "##ایات": 8362,
      "En": 8363,
      "اضطراری": 8364,
      "پژو": 8365,
      "فضانورد": 8366,
      "ترغیب": 8367,
      "ابوال": 8368,
      "##انداز": 8369,
      "AP": 8370,
      "موافق": 8371,
      "پایینی": 8372,
      "کنسرت": 8373,
      "توییت": 8374,
      "An": 8375,
      "ریم": 8376,
      "سایبری": 8377,
      "داروی": 8378,
      "۵۷": 8379,
      "جسم": 8380,
      "نیش": 8381,
      "کما": 8382,
      "کلیسا": 8383,
      "تعمیرات": 8384,
      "اختلالات": 8385,
      "خصوصیات": 8386,
      "امپراتور": 8387,
      "پارسی": 8388,
      "فوری": 8389,
      "نمید": 8390,
      "مهندسان": 8391,
      "تپ": 8392,
      "اکوسیستم": 8393,
      "بازتاب": 8394,
      "##انیا": 8395,
      "پذیرد": 8396,
      "حرارتی": 8397,
      "نگهبان": 8398,
      "##ردی": 8399,
      "ژنرال": 8400,
      "##اوز": 8401,
      "تفکیک": 8402,
      "استخر": 8403,
      "افریقای": 8404,
      "گواه": 8405,
      "غرق": 8406,
      "شورشیان": 8407,
      "وسعت": 8408,
      "چرخش": 8409,
      "کورت": 8410,
      "تبع": 8411,
      "ریخته": 8412,
      "هکتار": 8413,
      "دوازده": 8414,
      "هیل": 8415,
      "پودر": 8416,
      "##ایندی": 8417,
      "کلین": 8418,
      "مرده": 8419,
      "##واد": 8420,
      "##ریس": 8421,
      "تعرفه": 8422,
      "سویی": 8423,
      "امین": 8424,
      "متحرک": 8425,
      "##گرا": 8426,
      "صدم": 8427,
      "کارش": 8428,
      "خمینی": 8429,
      "Sc": 8430,
      "تنی": 8431,
      "سیز": 8432,
      "کارگیری": 8433,
      "ارژانت": 8434,
      "گلوله": 8435,
      "for": 8436,
      "کاربرانی": 8437,
      "لیم": 8438,
      "پین": 8439,
      "اسلحه": 8440,
      "حالتی": 8441,
      "خوشمزه": 8442,
      "##اسازی": 8443,
      "بلا": 8444,
      "اواز": 8445,
      "##پورت": 8446,
      "##یاط": 8447,
      "##جین": 8448,
      "کهکشان": 8449,
      "گشته": 8450,
      "کمدی": 8451,
      "جین": 8452,
      "ناراحت": 8453,
      "##CD": 8454,
      "اساسا": 8455,
      "هالی": 8456,
      "شوهر": 8457,
      "مارکتینگ": 8458,
      "رومی": 8459,
      "روانشناسی": 8460,
      "اموخت": 8461,
      "##ذیری": 8462,
      "عمودی": 8463,
      "تث": 8464,
      "دقیقی": 8465,
      "دوری": 8466,
      "استدلال": 8467,
      "پرک": 8468,
      "بدتر": 8469,
      "واری": 8470,
      "##ستون": 8471,
      "درنتیجه": 8472,
      "بردند": 8473,
      "رینگ": 8474,
      "بوم": 8475,
      "دال": 8476,
      "تبار": 8477,
      "تمرینات": 8478,
      "وردپرس": 8479,
      "دوستانه": 8480,
      "مرجع": 8481,
      "چشمگیر": 8482,
      "##انیوم": 8483,
      "اسانی": 8484,
      "تلس": 8485,
      "لامپ": 8486,
      "هام": 8487,
      "##باس": 8488,
      "کارنامه": 8489,
      "۴۷": 8490,
      "##فعال": 8491,
      "##ژیکی": 8492,
      "۱۳۹۵": 8493,
      "وج": 8494,
      "ایفای": 8495,
      "مدیریتی": 8496,
      "گنبد": 8497,
      "نکنند": 8498,
      "نماند": 8499,
      "شهرسازی": 8500,
      "صخره": 8501,
      "عبارتی": 8502,
      "ترسناک": 8503,
      "مکانیکی": 8504,
      "پوستی": 8505,
      "حریف": 8506,
      "سیلیک": 8507,
      "##سمی": 8508,
      "بنچم": 8509,
      "##ox": 8510,
      "##40": 8511,
      "تلخ": 8512,
      "##ونیک": 8513,
      "بچ": 8514,
      "##ff": 8515,
      "##واک": 8516,
      "گیمینگ": 8517,
      "زر": 8518,
      "##اداری": 8519,
      "سوالی": 8520,
      "پاداش": 8521,
      "زیرم": 8522,
      "##شکر": 8523,
      "۱۸۹": 8524,
      "تظاهرات": 8525,
      "##وارد": 8526,
      "دانشجویی": 8527,
      "هیوند": 8528,
      "پوسته": 8529,
      "نسبی": 8530,
      "سفارشی": 8531,
      "##70": 8532,
      "دراین": 8533,
      "انجلس": 8534,
      "نداد": 8535,
      "نویسد": 8536,
      "نازک": 8537,
      "##عدی": 8538,
      "کارتان": 8539,
      "##ايو": 8540,
      "شل": 8541,
      "اوردند": 8542,
      "نشینی": 8543,
      "شریف": 8544,
      "CES": 8545,
      "کارل": 8546,
      "پردازند": 8547,
      "تنفسی": 8548,
      "کالج": 8549,
      "کاملی": 8550,
      "پلاک": 8551,
      "۴۱": 8552,
      "##زان": 8553,
      "##ودن": 8554,
      "##اندازی": 8555,
      "تومانی": 8556,
      "نکردن": 8557,
      "ناوگان": 8558,
      "نگاری": 8559,
      "کیم": 8560,
      "##ظی": 8561,
      "برعکس": 8562,
      "اومد": 8563,
      "پید": 8564,
      "حص": 8565,
      "بقای": 8566,
      "درایو": 8567,
      "2018": 8568,
      "مکس": 8569,
      "##عیل": 8570,
      "تالار": 8571,
      "مدنظر": 8572,
      "نماز": 8573,
      "استعداد": 8574,
      "فرانک": 8575,
      "مقرون": 8576,
      "قطعنامه": 8577,
      "##البا": 8578,
      "خودمون": 8579,
      "گذراند": 8580,
      "حروف": 8581,
      "استار": 8582,
      "منحصربه": 8583,
      "خوراک": 8584,
      "##ft": 8585,
      "2020": 8586,
      "قن": 8587,
      "اسپیس": 8588,
      "Un": 8589,
      "##ey": 8590,
      "پیاز": 8591,
      "##جموعه": 8592,
      "##یریه": 8593,
      "ساختاری": 8594,
      "بهر": 8595,
      "پات": 8596,
      "محف": 8597,
      "بدم": 8598,
      "##لاند": 8599,
      "نادرست": 8600,
      "انداخته": 8601,
      "اینطور": 8602,
      "اعم": 8603,
      "مقرر": 8604,
      "قلمرو": 8605,
      "بکشید": 8606,
      "مخرب": 8607,
      "##راز": 8608,
      "منشا": 8609,
      "مشورت": 8610,
      "وحش": 8611,
      "تخصی": 8612,
      "منظره": 8613,
      "داوطلب": 8614,
      "ثمر": 8615,
      "۱۳۱": 8616,
      "افسر": 8617,
      "ممکنه": 8618,
      "گلی": 8619,
      "##وره": 8620,
      "بنچمارک": 8621,
      "مخالفان": 8622,
      "ماب": 8623,
      "##بندی": 8624,
      "استادی": 8625,
      "براورده": 8626,
      "کیه": 8627,
      "باشی": 8628,
      "رش": 8629,
      "مخدر": 8630,
      "دیوای": 8631,
      "اوم": 8632,
      "خوار": 8633,
      "درامده": 8634,
      "عرف": 8635,
      "ضمنا": 8636,
      "داشتنی": 8637,
      "کافیست": 8638,
      "پارکینگ": 8639,
      "2016": 8640,
      "هال": 8641,
      "دستاوردهای": 8642,
      "##وتیک": 8643,
      "بازدیدکنندگان": 8644,
      "عاط": 8645,
      "ریچارد": 8646,
      "ایرانسل": 8647,
      "##ail": 8648,
      "##دارک": 8649,
      "تابلو": 8650,
      "غالبا": 8651,
      "کاشت": 8652,
      "بخصوص": 8653,
      "##انسور": 8654,
      "نابودی": 8655,
      "متنی": 8656,
      "بایستی": 8657,
      "پراکنده": 8658,
      "انتها": 8659,
      "ربط": 8660,
      "##qu": 8661,
      "##انسی": 8662,
      "دفع": 8663,
      "حاي": 8664,
      "زیرمجموعه": 8665,
      "##قان": 8666,
      "##خر": 8667,
      "۲۰۰۱": 8668,
      "شهروند": 8669,
      "لاست": 8670,
      "جلویی": 8671,
      "ایستاده": 8672,
      "فولکس": 8673,
      "پارامتر": 8674,
      "زیرزمین": 8675,
      "زیبات": 8676,
      "تثبیت": 8677,
      "۱۳۹۸": 8678,
      "هواپیماهای": 8679,
      "وحشی": 8680,
      "تدارک": 8681,
      "##اموز": 8682,
      "##خل": 8683,
      "گاو": 8684,
      "اسکر": 8685,
      "احساسی": 8686,
      "##باع": 8687,
      "بریم": 8688,
      "زدند": 8689,
      "فاج": 8690,
      "##هزار": 8691,
      "قايل": 8692,
      "پنیر": 8693,
      "2019": 8694,
      "##ust": 8695,
      "۲۰۰۲": 8696,
      "خشکی": 8697,
      "کامیون": 8698,
      "خنده": 8699,
      "ثال": 8700,
      "مسافرت": 8701,
      "شدگان": 8702,
      "رواج": 8703,
      "ناراحتی": 8704,
      "دانشمند": 8705,
      "بارسل": 8706,
      "دشواری": 8707,
      "ممنوعیت": 8708,
      "گلو": 8709,
      "منتخ": 8710,
      "مذهب": 8711,
      "##۰۰۰": 8712,
      "حبس": 8713,
      "غلام": 8714,
      "افزودن": 8715,
      "ریزش": 8716,
      "نیسان": 8717,
      "مجل": 8718,
      "عزیزان": 8719,
      "جابجایی": 8720,
      "مهرماه": 8721,
      "سمی": 8722,
      "میرس": 8723,
      "نایب": 8724,
      "##مانده": 8725,
      "باگ": 8726,
      "حوص": 8727,
      "کنگ": 8728,
      "ستیزه": 8729,
      "حاج": 8730,
      "تخصیص": 8731,
      "تها": 8732,
      "همج": 8733,
      "بایدن": 8734,
      "جیب": 8735,
      "اظهارات": 8736,
      "اخلاق": 8737,
      "شخصیتی": 8738,
      "ویزا": 8739,
      "پرداختند": 8740,
      "شکاف": 8741,
      "##اندر": 8742,
      "قاعده": 8743,
      "استیو": 8744,
      "##یسم": 8745,
      "استراتژیک": 8746,
      "فاجعه": 8747,
      "##لیف": 8748,
      "بازیابی": 8749,
      "بلوچ": 8750,
      "امی": 8751,
      "##ly": 8752,
      "سويی": 8753,
      "ارامی": 8754,
      "##حسین": 8755,
      "حاکمیت": 8756,
      "هیوندای": 8757,
      "زندانیان": 8758,
      "نامگذاری": 8759,
      "لبخند": 8760,
      "انتظامی": 8761,
      "##نمایی": 8762,
      "اوکراین": 8763,
      "امتداد": 8764,
      "##توری": 8765,
      "محر": 8766,
      "##ork": 8767,
      "Ed": 8768,
      "باهم": 8769,
      "کوانتومی": 8770,
      "انتظارات": 8771,
      "۵۳": 8772,
      "بهای": 8773,
      "##اتا": 8774,
      "ایکون": 8775,
      "کاروان": 8776,
      "قوا": 8777,
      "چاق": 8778,
      "بخرید": 8779,
      "قبال": 8780,
      "مخابرات": 8781,
      "ارامگاه": 8782,
      "گراد": 8783,
      "##ینوس": 8784,
      "مشک": 8785,
      "جزییات": 8786,
      "تیک": 8787,
      "۸۸": 8788,
      "مکعب": 8789,
      "عذ": 8790,
      "غلبه": 8791,
      "اسماعیل": 8792,
      "شرک": 8793,
      "##شیم": 8794,
      "پروازهای": 8795,
      "ناص": 8796,
      "##بزر": 8797,
      "##الیف": 8798,
      "اوباما": 8799,
      "دفاتر": 8800,
      "زور": 8801,
      "میتونه": 8802,
      "الت": 8803,
      "مایک": 8804,
      "عملکردی": 8805,
      "الکل": 8806,
      "طلاق": 8807,
      "نگذ": 8808,
      "مراقب": 8809,
      "گلستان": 8810,
      "استودیوی": 8811,
      "روحیه": 8812,
      "دلایلی": 8813,
      "طبیعتا": 8814,
      "بریزید": 8815,
      "ورق": 8816,
      "معین": 8817,
      "ماشینی": 8818,
      "ردیابی": 8819,
      "AR": 8820,
      "استف": 8821,
      "امکاناتی": 8822,
      "پوشیدنی": 8823,
      "۴۹": 8824,
      "دادگ": 8825,
      "پیامبر": 8826,
      "قراردادی": 8827,
      "تفاوتی": 8828,
      "شناور": 8829,
      "لکه": 8830,
      "گناه": 8831,
      "نروژ": 8832,
      "مجری": 8833,
      "لان": 8834,
      "حیاط": 8835,
      "##نم": 8836,
      "وخ": 8837,
      "باه": 8838,
      "کنج": 8839,
      "نقدی": 8840,
      "دايم": 8841,
      "بدترین": 8842,
      "شورا": 8843,
      "بیه": 8844,
      "حسی": 8845,
      "باط": 8846,
      "۵۲": 8847,
      "اکشن": 8848,
      "زین": 8849,
      "مالزی": 8850,
      "تکراری": 8851,
      "قاي": 8852,
      "نود": 8853,
      "کاتال": 8854,
      "کمرب": 8855,
      "##اصد": 8856,
      "##cc": 8857,
      "رنو": 8858,
      "##وها": 8859,
      "فاضل": 8860,
      "یمن": 8861,
      "همکار": 8862,
      "ذره": 8863,
      "اهواز": 8864,
      "عید": 8865,
      "عجی": 8866,
      "سهمیه": 8867,
      "سیما": 8868,
      "۴۶": 8869,
      "##رون": 8870,
      "دادگستری": 8871,
      "##شوی": 8872,
      "تناسب": 8873,
      "بوشهر": 8874,
      "##تیو": 8875,
      "##اصره": 8876,
      "80": 8877,
      "فلف": 8878,
      "نفری": 8879,
      "پاره": 8880,
      "شاهزاده": 8881,
      "##ies": 8882,
      "Su": 8883,
      "۲۰۲": 8884,
      "اوی": 8885,
      "ناگهان": 8886,
      "خلبان": 8887,
      "بارگذاری": 8888,
      "گذران": 8889,
      "اطلاعیه": 8890,
      "دیوایس": 8891,
      "۵۴": 8892,
      "عاشقانه": 8893,
      "##icro": 8894,
      "چنگ": 8895,
      "پهنای": 8896,
      "نیل": 8897,
      "دهانه": 8898,
      "حسینی": 8899,
      "ملکه": 8900,
      "تراز": 8901,
      "تلسکوپ": 8902,
      "محاصره": 8903,
      "بپرسید": 8904,
      "سفری": 8905,
      "نمایی": 8906,
      "بلد": 8907,
      "طوفان": 8908,
      "##ide": 8909,
      "##az": 8910,
      "مردمان": 8911,
      "طرحی": 8912,
      "موتورسی": 8913,
      "لام": 8914,
      "حسابداری": 8915,
      "##وتین": 8916,
      "رن": 8917,
      "هرت": 8918,
      "ماجرای": 8919,
      "بانوان": 8920,
      "نرسیده": 8921,
      "فروشندگان": 8922,
      "بیایید": 8923,
      "قربانیان": 8924,
      "##گیل": 8925,
      "##انید": 8926,
      "سوسی": 8927,
      "##PU": 8928,
      "سناتور": 8929,
      "مسلما": 8930,
      "تروی": 8931,
      "تطبی": 8932,
      "مراجع": 8933,
      "سیک": 8934,
      "مدرس": 8935,
      "گندم": 8936,
      "##زون": 8937,
      "بیتی": 8938,
      "شفافیت": 8939,
      "شیب": 8940,
      "هوشمندی": 8941,
      "رسم": 8942,
      "مستمر": 8943,
      "بزنند": 8944,
      "وزیران": 8945,
      "برا": 8946,
      "توانم": 8947,
      "انی": 8948,
      "##مدان": 8949,
      "یازدهم": 8950,
      "صنفی": 8951,
      "دردسر": 8952,
      "میتونید": 8953,
      "پروفایل": 8954,
      "Te": 8955,
      "جذابی": 8956,
      "استحکام": 8957,
      "60": 8958,
      "نز": 8959,
      "ویدیوهای": 8960,
      "##iew": 8961,
      "نتوانسته": 8962,
      "نیوتن": 8963,
      "تحولات": 8964,
      "محتوایی": 8965,
      "توکیو": 8966,
      "##گول": 8967,
      "عالم": 8968,
      "ختم": 8969,
      "علیرضا": 8970,
      "جواه": 8971,
      "گارد": 8972,
      "##ran": 8973,
      "##انز": 8974,
      "گریه": 8975,
      "##يال": 8976,
      "خرم": 8977,
      "جاهای": 8978,
      "ثالث": 8979,
      "الهی": 8980,
      "پیامد": 8981,
      "۱۹۸۰": 8982,
      "وقفه": 8983,
      "نویسندگی": 8984,
      "تعویق": 8985,
      "فالو": 8986,
      "تکان": 8987,
      "##پای": 8988,
      "نشدن": 8989,
      "درسی": 8990,
      "اسیای": 8991,
      "اسکری": 8992,
      "پاي": 8993,
      "یی": 8994,
      "سح": 8995,
      "مواجهه": 8996,
      "۸۶": 8997,
      "17": 8998,
      "ولتاژ": 8999,
      "موتورسیکلت": 9000,
      "##لیس": 9001,
      "متون": 9002,
      "واژ": 9003,
      "محمدی": 9004,
      "##لیو": 9005,
      "متعهد": 9006,
      "بیکاری": 9007,
      "اعتراف": 9008,
      "تزی": 9009,
      "موظ": 9010,
      "Gal": 9011,
      "صلاحیت": 9012,
      "فلفل": 9013,
      "هاشمی": 9014,
      "پهپاد": 9015,
      "معکوس": 9016,
      "صفوی": 9017,
      "ببیند": 9018,
      "سوراخ": 9019,
      "پستان": 9020,
      "اعتی": 9021,
      "##زدهم": 9022,
      "انحصاری": 9023,
      "سالها": 9024,
      "سایپا": 9025,
      "بنگ": 9026,
      "زیباترین": 9027,
      "الجز": 9028,
      "پیکر": 9029,
      "یوس": 9030,
      "غیرفعال": 9031,
      "رب": 9032,
      "راند": 9033,
      "##گزار": 9034,
      "##یافت": 9035,
      "بازیگری": 9036,
      "برگرفته": 9037,
      "PC": 9038,
      "فانت": 9039,
      "##ick": 9040,
      "قید": 9041,
      "##مکن": 9042,
      "نامناسب": 9043,
      "تاچ": 9044,
      "موضع": 9045,
      "پستی": 9046,
      "بوجود": 9047,
      "جانبه": 9048,
      "استناد": 9049,
      "زاي": 9050,
      "##یان": 9051,
      "##ime": 9052,
      "دکوراسیون": 9053,
      "محسن": 9054,
      "مقدماتی": 9055,
      "Qu": 9056,
      "نیستید": 9057,
      "تاشو": 9058,
      "##الیسم": 9059,
      "سدان": 9060,
      "مسافرتی": 9061,
      "تجاوز": 9062,
      "##عفونی": 9063,
      "شرکتهای": 9064,
      "مکانیزم": 9065,
      "##اگو": 9066,
      "##سلی": 9067,
      "##12": 9068,
      "معنوی": 9069,
      "##نظ": 9070,
      "شری": 9071,
      "پویا": 9072,
      "پکن": 9073,
      "محاک": 9074,
      "اشپزی": 9075,
      "سناری": 9076,
      "##ورها": 9077,
      "۵۶": 9078,
      "خیابانی": 9079,
      "ژانر": 9080,
      "نکاتی": 9081,
      "##ian": 9082,
      "ثان": 9083,
      "براش": 9084,
      "الک": 9085,
      "قراردادهای": 9086,
      "عاملی": 9087,
      "##orm": 9088,
      "مکرر": 9089,
      "خودشون": 9090,
      "کالاها": 9091,
      "کب": 9092,
      "کامنت": 9093,
      "بسازد": 9094,
      "##یکسل": 9095,
      "##واسته": 9096,
      "زه": 9097,
      "##yn": 9098,
      "فه": 9099,
      "Con": 9100,
      "تلفات": 9101,
      "احراز": 9102,
      "بادام": 9103,
      "اورید": 9104,
      "خوی": 9105,
      "##رول": 9106,
      "تیرماه": 9107,
      "اولترا": 9108,
      "قبولی": 9109,
      "موشکی": 9110,
      "ضدعفونی": 9111,
      "تزيین": 9112,
      "##افرا": 9113,
      "هیت": 9114,
      "گوس": 9115,
      "دیواری": 9116,
      "ببینند": 9117,
      "عجیبی": 9118,
      "رشت": 9119,
      "##ایپ": 9120,
      "ملاحظه": 9121,
      "is": 9122,
      "ضل": 9123,
      "مصط": 9124,
      "##احب": 9125,
      "تعقیب": 9126,
      "ارژانتین": 9127,
      "##pe": 9128,
      "برایشان": 9129,
      "انتن": 9130,
      "کوپرت": 9131,
      "نامید": 9132,
      "محتوی": 9133,
      "بپردازیم": 9134,
      "ناشناخته": 9135,
      "سنگاپور": 9136,
      "هوشمندانه": 9137,
      "##atch": 9138,
      "ضربان": 9139,
      "۱۹۷۰": 9140,
      "دریچه": 9141,
      "اعصاب": 9142,
      "##فیک": 9143,
      "##ame": 9144,
      "##اتوری": 9145,
      "نظرتان": 9146,
      "de": 9147,
      "کاشان": 9148,
      "##کانی": 9149,
      "جاد": 9150,
      "رسمیت": 9151,
      "جورج": 9152,
      "خطرات": 9153,
      "کلمبیا": 9154,
      "بول": 9155,
      "اشعار": 9156,
      "عاطفی": 9157,
      "##الله": 9158,
      "ریه": 9159,
      "مکانیک": 9160,
      "هیدروژن": 9161,
      "هرد": 9162,
      "موجودی": 9163,
      "گازهای": 9164,
      "میشوند": 9165,
      "نمودند": 9166,
      "##ادات": 9167,
      "تورهای": 9168,
      "مهمانان": 9169,
      "بیاورید": 9170,
      "فرید": 9171,
      "پاسداران": 9172,
      "پشتیبان": 9173,
      "پنجمین": 9174,
      "##جویان": 9175,
      "تعهدات": 9176,
      "مطلق": 9177,
      "خبرهای": 9178,
      "نظامیان": 9179,
      "عظیمی": 9180,
      "ید": 9181,
      "دراگون": 9182,
      "سمن": 9183,
      "بدیه": 9184,
      "اعتیاد": 9185,
      "گرده": 9186,
      "ارزشی": 9187,
      "گا": 9188,
      "اینف": 9189,
      "ترسیم": 9190,
      "فقر": 9191,
      "۶۷": 9192,
      "جاسوسی": 9193,
      "بزرگر": 9194,
      "نظرم": 9195,
      "افشا": 9196,
      "بداف": 9197,
      "دشمنان": 9198,
      "سانت": 9199,
      "اسرايیلی": 9200,
      "سنجی": 9201,
      "ستارگان": 9202,
      "دستگیری": 9203,
      "لزوما": 9204,
      "۷۲": 9205,
      "یونسکو": 9206,
      "معادن": 9207,
      "مغذی": 9208,
      "تاریکی": 9209,
      "سلولی": 9210,
      "مسعود": 9211,
      "۱۳۹۷": 9212,
      "##۱۳": 9213,
      "شدیدی": 9214,
      "##استفاده": 9215,
      "##ith": 9216,
      "پایتون": 9217,
      "Pr": 9218,
      "مقاصد": 9219,
      "##کنه": 9220,
      "استاندار": 9221,
      "میکنید": 9222,
      "هاب": 9223,
      "تصاحب": 9224,
      "تابش": 9225,
      "نوزادان": 9226,
      "کرسی": 9227,
      "۱۸۰": 9228,
      "افتادن": 9229,
      "##بزرگ": 9230,
      "سردر": 9231,
      "قش": 9232,
      "تیراندازی": 9233,
      "افرین": 9234,
      "بناهای": 9235,
      "اکتشاف": 9236,
      "خیز": 9237,
      "##تره": 9238,
      "بیفتد": 9239,
      "محتر": 9240,
      "قابلیتی": 9241,
      "دوز": 9242,
      "مکتب": 9243,
      "باها": 9244,
      "لیزر": 9245,
      "خطاب": 9246,
      "بوي": 9247,
      "##ash": 9248,
      "تداوم": 9249,
      "منتخب": 9250,
      "اسات": 9251,
      "بیاب": 9252,
      "فریب": 9253,
      "تابستانی": 9254,
      "ریک": 9255,
      "نمایشگری": 9256,
      "مرتبه": 9257,
      "##11": 9258,
      "سیستان": 9259,
      "عهد": 9260,
      "کمر": 9261,
      "بلندی": 9262,
      "۸۴": 9263,
      "##وکراسی": 9264,
      "لحظات": 9265,
      "فضاپیم": 9266,
      "میگویند": 9267,
      "لطفا": 9268,
      "##مرد": 9269,
      "اردبیل": 9270,
      "هارو": 9271,
      "99": 9272,
      "جت": 9273,
      "چرم": 9274,
      "زنجان": 9275,
      "پرچمداران": 9276,
      "برادرش": 9277,
      "##زدی": 9278,
      "نویز": 9279,
      "پاسخگویی": 9280,
      "دانستند": 9281,
      "مرو": 9282,
      "فراخوان": 9283,
      "لیوان": 9284,
      "##ost": 9285,
      "سنگینی": 9286,
      "گود": 9287,
      "##ial": 9288,
      "کشتار": 9289,
      "قره": 9290,
      "براتون": 9291,
      "مبارز": 9292,
      "نوبل": 9293,
      "##ens": 9294,
      "##ويید": 9295,
      "دیواره": 9296,
      "گردان": 9297,
      "##ستیک": 9298,
      "قارچ": 9299,
      "زرت": 9300,
      "##زاد": 9301,
      "پرهیز": 9302,
      "And": 9303,
      "سیری": 9304,
      "چیه": 9305,
      "۷۴": 9306,
      "مقدمه": 9307,
      "نورد": 9308,
      "هکرها": 9309,
      "##روب": 9310,
      "نوسازی": 9311,
      "میشن": 9312,
      "پسرش": 9313,
      "مضر": 9314,
      "##axy": 9315,
      "کاشی": 9316,
      "جامد": 9317,
      "۱۸۸": 9318,
      "کارافرینی": 9319,
      "تخته": 9320,
      "کیفی": 9321,
      "##مو": 9322,
      "##قول": 9323,
      "ماهیچه": 9324,
      "بهشت": 9325,
      "رزومه": 9326,
      "گیرید": 9327,
      "ترویج": 9328,
      "حماس": 9329,
      "اپارتمان": 9330,
      "##int": 9331,
      "نبودند": 9332,
      "البرز": 9333,
      "یافتند": 9334,
      "##گرایی": 9335,
      "ناگفته": 9336,
      "##ندو": 9337,
      "##یشنی": 9338,
      "۶۲": 9339,
      "۱۸۷": 9340,
      "حضرت": 9341,
      "ايودی": 9342,
      "برید": 9343,
      "فرمانرو": 9344,
      "برسانند": 9345,
      "بستن": 9346,
      "بلژیک": 9347,
      "خشن": 9348,
      "##ومتی": 9349,
      "خمیر": 9350,
      "غریب": 9351,
      "نحو": 9352,
      "شیعی": 9353,
      "الز": 9354,
      "LTE": 9355,
      "##الدین": 9356,
      "۱۳۸۵": 9357,
      "نویسان": 9358,
      "اعلان": 9359,
      "حوصله": 9360,
      "داعش": 9361,
      "بنیادی": 9362,
      "هادی": 9363,
      "اشتباهات": 9364,
      "سس": 9365,
      "##گروه": 9366,
      "فب": 9367,
      "معط": 9368,
      "محدودی": 9369,
      "خوانندگان": 9370,
      "##همان": 9371,
      "غی": 9372,
      "جدیدش": 9373,
      "سیاستم": 9374,
      "مبلغی": 9375,
      "پیوستن": 9376,
      "ناشر": 9377,
      "فلا": 9378,
      "هدر": 9379,
      "بفرست": 9380,
      "Mi": 9381,
      "برادران": 9382,
      "اماکن": 9383,
      "on": 9384,
      "ناچ": 9385,
      "توقی": 9386,
      "پوند": 9387,
      "##خیلی": 9388,
      "دستورات": 9389,
      "بختیاری": 9390,
      "ظروف": 9391,
      "روزگار": 9392,
      "دفن": 9393,
      "کتی": 9394,
      "هايی": 9395,
      "بمانند": 9396,
      "رضوی": 9397,
      "تجار": 9398,
      "استوری": 9399,
      "کمربند": 9400,
      "فاط": 9401,
      "مرسوم": 9402,
      "##ين": 9403,
      "درامدهای": 9404,
      "نازی": 9405,
      "مگاپیکسل": 9406,
      "ساق": 9407,
      "عادل": 9408,
      "مچ": 9409,
      "تگ": 9410,
      "II": 9411,
      "متوالی": 9412,
      "یونی": 9413,
      "غری": 9414,
      "غبار": 9415,
      "قطره": 9416,
      "افقی": 9417,
      "زحمت": 9418,
      "ایلام": 9419,
      "اقلام": 9420,
      "ناچار": 9421,
      "شایسته": 9422,
      "هری": 9423,
      "ادمی": 9424,
      "تصویربرداری": 9425,
      "فنلاند": 9426,
      "کیا": 9427,
      "ابزارها": 9428,
      "Galaxy": 9429,
      "بزرگراه": 9430,
      "قف": 9431,
      "ماساژ": 9432,
      "ژورن": 9433,
      "هان": 9434,
      "مایه": 9435,
      "منا": 9436,
      "شنید": 9437,
      "تشکر": 9438,
      "##ower": 9439,
      "بازدهی": 9440,
      "لشکر": 9441,
      "قبیله": 9442,
      "##ثه": 9443,
      "ناق": 9444,
      "۹۴": 9445,
      "##ینامه": 9446,
      "مشتاق": 9447,
      "بدهیم": 9448,
      "رکود": 9449,
      "گردی": 9450,
      "LCD": 9451,
      "بحرانی": 9452,
      "ابهام": 9453,
      "حرفی": 9454,
      "SSD": 9455,
      "بسازید": 9456,
      "Fl": 9457,
      "Le": 9458,
      "##ساله": 9459,
      "الر": 9460,
      "ID": 9461,
      "نشون": 9462,
      "اطرافی": 9463,
      "اله": 9464,
      "جنج": 9465,
      "اموال": 9466,
      "##HD": 9467,
      "##ree": 9468,
      "خنثی": 9469,
      "بدافزار": 9470,
      "کشتن": 9471,
      "تقلید": 9472,
      "معی": 9473,
      "ایمان": 9474,
      "مهره": 9475,
      "موظف": 9476,
      "۱۹۶۰": 9477,
      "گواهینامه": 9478,
      "##یلد": 9479,
      "اسکریپت": 9480,
      "بزرگان": 9481,
      "اراده": 9482,
      "عمارت": 9483,
      "غرفه": 9484,
      "محموله": 9485,
      "نوزدهم": 9486,
      "برداشتن": 9487,
      "سرش": 9488,
      "اصرار": 9489,
      "اسامی": 9490,
      "۷۶": 9491,
      "عری": 9492,
      "ابادی": 9493,
      "##ber": 9494,
      "براین": 9495,
      "یوگ": 9496,
      "بینند": 9497,
      "دانستن": 9498,
      "گردشگر": 9499,
      "کوشش": 9500,
      "تلفی": 9501,
      "##پن": 9502,
      "بیننده": 9503,
      "تقدیر": 9504,
      "اقوام": 9505,
      "تایم": 9506,
      "##حد": 9507,
      "مشمول": 9508,
      "دادستان": 9509,
      "ریاضیات": 9510,
      "لیسانس": 9511,
      "نهاده": 9512,
      "۱۹۹۹": 9513,
      "کویت": 9514,
      "مخاطبین": 9515,
      "##بخ": 9516,
      "اجلاس": 9517,
      "واگذاری": 9518,
      "##لیمی": 9519,
      "انالیز": 9520,
      "کرج": 9521,
      "پرین": 9522,
      "اموخته": 9523,
      "مفصل": 9524,
      "حايز": 9525,
      "رایت": 9526,
      "تجویز": 9527,
      "حکومتی": 9528,
      "موی": 9529,
      "انجامید": 9530,
      "میسر": 9531,
      "کنس": 9532,
      "سردار": 9533,
      "بدیهی": 9534,
      "۸۳": 9535,
      "re": 9536,
      "لاستیک": 9537,
      "اندازد": 9538,
      "قرارگیری": 9539,
      "##کردن": 9540,
      "##گراف": 9541,
      "تونل": 9542,
      "نشوید": 9543,
      "نشستن": 9544,
      "فاکس": 9545,
      "IS": 9546,
      "ونقل": 9547,
      "فبلت": 9548,
      "وادار": 9549,
      "صرافی": 9550,
      "ویکی": 9551,
      "ناامید": 9552,
      "۹۲": 9553,
      "ایتم": 9554,
      "یازده": 9555,
      "درامدی": 9556,
      "طنز": 9557,
      "الگوهای": 9558,
      "غالب": 9559,
      "##دت": 9560,
      "##بن": 9561,
      "بگوید": 9562,
      "##وقت": 9563,
      "بپوش": 9564,
      "##ساب": 9565,
      "مناطقی": 9566,
      "بالینی": 9567,
      "##ction": 9568,
      "کث": 9569,
      "توقیف": 9570,
      "دیم": 9571,
      "##دهنده": 9572,
      "خطای": 9573,
      "افرینی": 9574,
      "مزه": 9575,
      "##لیکس": 9576,
      "مبدل": 9577,
      "##وفر": 9578,
      "##DR": 9579,
      "توت": 9580,
      "اردوگاه": 9581,
      "لومی": 9582,
      "افیس": 9583,
      "۹۳": 9584,
      "کبد": 9585,
      "راستی": 9586,
      "فرعی": 9587,
      "داروها": 9588,
      "اختلافات": 9589,
      "غذاها": 9590,
      "##ll": 9591,
      "##rom": 9592,
      "برپا": 9593,
      "مشهورترین": 9594,
      "تراب": 9595,
      "نگرش": 9596,
      "##ویسی": 9597,
      "مهلت": 9598,
      "جنا": 9599,
      "##ورانه": 9600,
      "ندر": 9601,
      "قدرد": 9602,
      "طلای": 9603,
      "۵۹": 9604,
      "کماکان": 9605,
      "##رافت": 9606,
      "۳۶۰": 9607,
      "لیبی": 9608,
      "##AM": 9609,
      "ترمیم": 9610,
      "ژورنال": 9611,
      "##ome": 9612,
      "دستمزد": 9613,
      "پیشرو": 9614,
      "مشکوک": 9615,
      "##لوب": 9616,
      "خورند": 9617,
      "فاضلاب": 9618,
      "خزانه": 9619,
      "عایق": 9620,
      "سالیانه": 9621,
      "خمیده": 9622,
      "خواهی": 9623,
      "مسو": 9624,
      "۵۸": 9625,
      "##SL": 9626,
      "میکنن": 9627,
      "شکلات": 9628,
      "۷۷": 9629,
      "اهم": 9630,
      "ذخایر": 9631,
      "قوم": 9632,
      "##aw": 9633,
      "کاز": 9634,
      "##ok": 9635,
      "مسيولین": 9636,
      "گرس": 9637,
      "وزارتخانه": 9638,
      "الات": 9639,
      "افزارها": 9640,
      "الومینیوم": 9641,
      "گذراندن": 9642,
      "مداخ": 9643,
      "ترو": 9644,
      "گرای": 9645,
      "چاره": 9646,
      "##الا": 9647,
      "بنده": 9648,
      "۶۳": 9649,
      "گرگ": 9650,
      "نینت": 9651,
      "اعظم": 9652,
      "Air": 9653,
      "یاس": 9654,
      "بارز": 9655,
      "مهاجم": 9656,
      "ارایشی": 9657,
      "##up": 9658,
      "۱۳۹۶": 9659,
      "درز": 9660,
      "##سپ": 9661,
      "کوره": 9662,
      "اساتید": 9663,
      "سنا": 9664,
      "ابداع": 9665,
      "مناق": 9666,
      "نشوند": 9667,
      "##ایا": 9668,
      "خسرو": 9669,
      "پیامی": 9670,
      "ندهد": 9671,
      "پیتر": 9672,
      "##گراد": 9673,
      "دیافرا": 9674,
      "گردو": 9675,
      "کنجکا": 9676,
      "الد": 9677,
      "قرون": 9678,
      "##ors": 9679,
      "##راهای": 9680,
      "والیبال": 9681,
      "مصطفی": 9682,
      "محاکمه": 9683,
      "دکتری": 9684,
      "اقامتگاه": 9685,
      "۶۶": 9686,
      "سنین": 9687,
      "اقداماتی": 9688,
      "MI": 9689,
      "نشانگر": 9690,
      "معاف": 9691,
      "##SM": 9692,
      "استون": 9693,
      "##ظمی": 9694,
      "اینکار": 9695,
      "مادران": 9696,
      "نانو": 9697,
      "قشر": 9698,
      "۸۷": 9699,
      "##رماه": 9700,
      "ویرگول": 9701,
      "بازنشستگی": 9702,
      "گمانه": 9703,
      "داشتید": 9704,
      "بزرگسالان": 9705,
      "۶۱": 9706,
      "مزار": 9707,
      "بلوم": 9708,
      "##بون": 9709,
      "قفسه": 9710,
      "رقمی": 9711,
      "ببند": 9712,
      "برایم": 9713,
      "گرمی": 9714,
      "199": 9715,
      "سیت": 9716,
      "گازرسانی": 9717,
      "هفتاد": 9718,
      "بهادار": 9719,
      "کوهستان": 9720,
      "جنگلی": 9721,
      "##پیشه": 9722,
      "معیارهای": 9723,
      "نینتندو": 9724,
      "بلندمدت": 9725,
      "بدانند": 9726,
      "##roid": 9727,
      "DNA": 9728,
      "مترجم": 9729,
      "ریل": 9730,
      "اثاری": 9731,
      "ازان": 9732,
      "32": 9733,
      "##يوس": 9734,
      "تگز": 9735,
      "لاز": 9736,
      "گرفتیم": 9737,
      "##واس": 9738,
      "واحدی": 9739,
      "خرس": 9740,
      "منتشرشده": 9741,
      "بلوچستان": 9742,
      "عواملی": 9743,
      "بشم": 9744,
      "##خود": 9745,
      "کلسیم": 9746,
      "اتری": 9747,
      "عمان": 9748,
      "##طن": 9749,
      "نمیت": 9750,
      "هفتگی": 9751,
      "بوس": 9752,
      "##نگری": 9753,
      "##یرو": 9754,
      "بیاورند": 9755,
      "منظومه": 9756,
      "نپ": 9757,
      "##پایی": 9758,
      "یانگ": 9759,
      "اسکی": 9760,
      "فصلی": 9761,
      "لاین": 9762,
      "فردوسی": 9763,
      "##بخش": 9764,
      "منس": 9765,
      "حمید": 9766,
      "##طانی": 9767,
      "پخته": 9768,
      "شص": 9769,
      "##AR": 9770,
      "میکردم": 9771,
      "۹۱": 9772,
      "##ink": 9773,
      "##ett": 9774,
      "سوسیال": 9775,
      "شناسند": 9776,
      "اپتیک": 9777,
      "##ull": 9778,
      "۱۹۹۸": 9779,
      "منظر": 9780,
      "##خارجه": 9781,
      "میبین": 9782,
      "خواستند": 9783,
      "ادوارد": 9784,
      "ترانز": 9785,
      "دختری": 9786,
      "نمایشنامه": 9787,
      "##بایی": 9788,
      "فواید": 9789,
      "اعطا": 9790,
      "زنانه": 9791,
      "##وداگاه": 9792,
      "##شب": 9793,
      "##ment": 9794,
      "##ject": 9795,
      "کابینه": 9796,
      "دیافراگم": 9797,
      "هندوستان": 9798,
      "ندرت": 9799,
      "Man": 9800,
      "##ابور": 9801,
      "##یدان": 9802,
      "سرس": 9803,
      "نمودن": 9804,
      "تويیتر": 9805,
      "ساسانی": 9806,
      "عریض": 9807,
      "استریت": 9808,
      "موازی": 9809,
      "مناظر": 9810,
      "امداد": 9811,
      "کریم": 9812,
      "ماندگار": 9813,
      "قصر": 9814,
      "زیرزمینی": 9815,
      "واقعه": 9816,
      "اذرماه": 9817,
      "شکنجه": 9818,
      "##out": 9819,
      "انطور": 9820,
      "##ستن": 9821,
      "اورانیوم": 9822,
      "مریم": 9823,
      "##ID": 9824,
      "##لیون": 9825,
      "تخیلی": 9826,
      "##غری": 9827,
      "تکلیف": 9828,
      "کارفرما": 9829,
      "کندی": 9830,
      "اوبر": 9831,
      "بدید": 9832,
      "##اقب": 9833,
      "بلیت": 9834,
      "سودان": 9835,
      "تحلیلگران": 9836,
      "اسکند": 9837,
      "اذیت": 9838,
      "بنویسم": 9839,
      "##ايلی": 9840,
      "Am": 9841,
      "معناست": 9842,
      "اصالت": 9843,
      "مدلی": 9844,
      "امیزی": 9845,
      "عباسی": 9846,
      "هستش": 9847,
      "##جمی": 9848,
      "نوشیدن": 9849,
      "انگیزی": 9850,
      "اردن": 9851,
      "اپلود": 9852,
      "تمایز": 9853,
      "فایده": 9854,
      "##پزش": 9855,
      "موسوی": 9856,
      "توانمندی": 9857,
      "استعفا": 9858,
      "کمونیست": 9859,
      "توانمند": 9860,
      "ایرلند": 9861,
      "مهیا": 9862,
      "دامن": 9863,
      "##اهن": 9864,
      "ناخوداگاه": 9865,
      "کولر": 9866,
      "ویديوی": 9867,
      "لرستان": 9868,
      "دانمارک": 9869,
      "##ug": 9870,
      "جانوران": 9871,
      "خودی": 9872,
      "داوری": 9873,
      "عقد": 9874,
      "فرضیه": 9875,
      "انتقام": 9876,
      "تونه": 9877,
      "اراضی": 9878,
      "فروند": 9879,
      "برگه": 9880,
      "پرتغال": 9881,
      "وکارهای": 9882,
      "##ذیب": 9883,
      "استین": 9884,
      "نامند": 9885,
      "بنگاه": 9886,
      "مادری": 9887,
      "##اکو": 9888,
      "پایانه": 9889,
      "##حق": 9890,
      "کرک": 9891,
      "افریقایی": 9892,
      "مترمک": 9893,
[...]
